{
  "version": "1.0",
  "truncation": null,
  "padding": null,
  "added_tokens": [
    {
      "id": 0,
      "content": "[UNK]",
      "single_word": false,
      "lstrip": false,
      "rstrip": false,
      "normalized": false,
      "special": true
    },
    {
      "id": 1,
      "content": "[CLS]",
      "single_word": false,
      "lstrip": false,
      "rstrip": false,
      "normalized": false,
      "special": true
    },
    {
      "id": 2,
      "content": "[SEP]",
      "single_word": false,
      "lstrip": false,
      "rstrip": false,
      "normalized": false,
      "special": true
    },
    {
      "id": 3,
      "content": "[PAD]",
      "single_word": false,
      "lstrip": false,
      "rstrip": false,
      "normalized": false,
      "special": true
    },
    {
      "id": 4,
      "content": "[MASK]",
      "single_word": false,
      "lstrip": false,
      "rstrip": false,
      "normalized": false,
      "special": true
    }
  ],
  "normalizer": null,
  "pre_tokenizer": {
    "type": "ByteLevel",
    "add_prefix_space": true,
    "trim_offsets": true,
    "use_regex": true
  },
  "post_processor": {
    "type": "TemplateProcessing",
    "single": [
      {
        "SpecialToken": {
          "id": "[CLS]",
          "type_id": 0
        }
      },
      {
        "Sequence": {
          "id": "A",
          "type_id": 0
        }
      },
      {
        "SpecialToken": {
          "id": "[SEP]",
          "type_id": 0
        }
      }
    ],
    "pair": [
      {
        "SpecialToken": {
          "id": "[CLS]",
          "type_id": 0
        }
      },
      {
        "Sequence": {
          "id": "A",
          "type_id": 0
        }
      },
      {
        "SpecialToken": {
          "id": "[SEP]",
          "type_id": 0
        }
      },
      {
        "Sequence": {
          "id": "B",
          "type_id": 0
        }
      },
      {
        "SpecialToken": {
          "id": "[SEP]",
          "type_id": 0
        }
      }
    ],
    "special_tokens": {
      "[CLS]": {
        "id": "[CLS]",
        "ids": [
          1
        ],
        "tokens": [
          "[CLS]"
        ]
      },
      "[SEP]": {
        "id": "[SEP]",
        "ids": [
          2
        ],
        "tokens": [
          "[SEP]"
        ]
      }
    }
  },
  "decoder": {
    "type": "ByteLevel",
    "add_prefix_space": true,
    "trim_offsets": true,
    "use_regex": true
  },
  "model": {
    "type": "BPE",
    "dropout": null,
    "unk_token": "[UNK]",
    "continuing_subword_prefix": null,
    "end_of_word_suffix": null,
    "fuse_unk": false,
    "byte_fallback": false,
    "ignore_merges": false,
    "vocab": {
      "[UNK]": 0,
      "[CLS]": 1,
      "[SEP]": 2,
      "[PAD]": 3,
      "[MASK]": 4,
      "!": 5,
      "\"": 6,
      "#": 7,
      "$": 8,
      "%": 9,
      "&": 10,
      "'": 11,
      "(": 12,
      ")": 13,
      "*": 14,
      "+": 15,
      ",": 16,
      "-": 17,
      ".": 18,
      "/": 19,
      "0": 20,
      "1": 21,
      "2": 22,
      "3": 23,
      "4": 24,
      "5": 25,
      "6": 26,
      "7": 27,
      "8": 28,
      "9": 29,
      ":": 30,
      ";": 31,
      "<": 32,
      "=": 33,
      ">": 34,
      "?": 35,
      "@": 36,
      "A": 37,
      "B": 38,
      "C": 39,
      "D": 40,
      "E": 41,
      "F": 42,
      "G": 43,
      "H": 44,
      "I": 45,
      "J": 46,
      "K": 47,
      "L": 48,
      "M": 49,
      "N": 50,
      "O": 51,
      "P": 52,
      "Q": 53,
      "R": 54,
      "S": 55,
      "T": 56,
      "U": 57,
      "V": 58,
      "W": 59,
      "X": 60,
      "Y": 61,
      "Z": 62,
      "[": 63,
      "\\": 64,
      "]": 65,
      "^": 66,
      "_": 67,
      "`": 68,
      "a": 69,
      "b": 70,
      "c": 71,
      "d": 72,
      "e": 73,
      "f": 74,
      "g": 75,
      "h": 76,
      "i": 77,
      "j": 78,
      "k": 79,
      "l": 80,
      "m": 81,
      "n": 82,
      "o": 83,
      "p": 84,
      "q": 85,
      "r": 86,
      "s": 87,
      "t": 88,
      "u": 89,
      "v": 90,
      "w": 91,
      "x": 92,
      "y": 93,
      "z": 94,
      "{": 95,
      "|": 96,
      "}": 97,
      "~": 98,
      "¡": 99,
      "¢": 100,
      "£": 101,
      "¤": 102,
      "¥": 103,
      "¦": 104,
      "§": 105,
      "¨": 106,
      "©": 107,
      "ª": 108,
      "«": 109,
      "¬": 110,
      "®": 111,
      "¯": 112,
      "°": 113,
      "±": 114,
      "²": 115,
      "³": 116,
      "´": 117,
      "µ": 118,
      "¶": 119,
      "·": 120,
      "¸": 121,
      "¹": 122,
      "º": 123,
      "»": 124,
      "¼": 125,
      "½": 126,
      "¾": 127,
      "¿": 128,
      "À": 129,
      "Á": 130,
      "Â": 131,
      "Ã": 132,
      "Ä": 133,
      "Å": 134,
      "Æ": 135,
      "Ç": 136,
      "È": 137,
      "É": 138,
      "Ê": 139,
      "Ë": 140,
      "Ì": 141,
      "Í": 142,
      "Î": 143,
      "Ï": 144,
      "Ð": 145,
      "Ñ": 146,
      "Ò": 147,
      "Ó": 148,
      "Ô": 149,
      "Õ": 150,
      "Ö": 151,
      "×": 152,
      "Ø": 153,
      "Ù": 154,
      "Ú": 155,
      "Û": 156,
      "Ü": 157,
      "Ý": 158,
      "Þ": 159,
      "ß": 160,
      "à": 161,
      "á": 162,
      "â": 163,
      "ã": 164,
      "ä": 165,
      "å": 166,
      "æ": 167,
      "ç": 168,
      "è": 169,
      "é": 170,
      "ê": 171,
      "ë": 172,
      "ì": 173,
      "í": 174,
      "î": 175,
      "ï": 176,
      "ð": 177,
      "ñ": 178,
      "ò": 179,
      "ó": 180,
      "ô": 181,
      "õ": 182,
      "ö": 183,
      "÷": 184,
      "ø": 185,
      "ù": 186,
      "ú": 187,
      "û": 188,
      "ü": 189,
      "ý": 190,
      "þ": 191,
      "ÿ": 192,
      "Ā": 193,
      "ā": 194,
      "Ă": 195,
      "ă": 196,
      "Ą": 197,
      "ą": 198,
      "Ć": 199,
      "ć": 200,
      "Ĉ": 201,
      "ĉ": 202,
      "Ċ": 203,
      "ċ": 204,
      "Č": 205,
      "č": 206,
      "Ď": 207,
      "ď": 208,
      "Đ": 209,
      "đ": 210,
      "Ē": 211,
      "ē": 212,
      "Ĕ": 213,
      "ĕ": 214,
      "Ė": 215,
      "ė": 216,
      "Ę": 217,
      "ę": 218,
      "Ě": 219,
      "ě": 220,
      "Ĝ": 221,
      "ĝ": 222,
      "Ğ": 223,
      "ğ": 224,
      "Ġ": 225,
      "ġ": 226,
      "Ģ": 227,
      "ģ": 228,
      "Ĥ": 229,
      "ĥ": 230,
      "Ħ": 231,
      "ħ": 232,
      "Ĩ": 233,
      "ĩ": 234,
      "Ī": 235,
      "ī": 236,
      "Ĭ": 237,
      "ĭ": 238,
      "Į": 239,
      "į": 240,
      "İ": 241,
      "ı": 242,
      "Ĳ": 243,
      "ĳ": 244,
      "Ĵ": 245,
      "ĵ": 246,
      "Ķ": 247,
      "ķ": 248,
      "ĸ": 249,
      "Ĺ": 250,
      "ĺ": 251,
      "Ļ": 252,
      "ļ": 253,
      "Ľ": 254,
      "ľ": 255,
      "Ŀ": 256,
      "ŀ": 257,
      "Ł": 258,
      "ł": 259,
      "Ń": 260,
      "Ġa": 261,
      "in": 262,
      "Ġt": 263,
      "Ġo": 264,
      "Ġs": 265,
      "ing": 266,
      "it": 267,
      "Ġb": 268,
      "ĠA": 269,
      "Ġw": 270,
      "he": 271,
      "Ġp": 272,
      "an": 273,
      "re": 274,
      "Ġc": 275,
      "le": 276,
      "er": 277,
      "Ġon": 278,
      "at": 279,
      "Ġof": 280,
      "Ġin": 281,
      "ar": 282,
      "ro": 283,
      "Ġthe": 284,
      "Ġan": 285,
      "Ġf": 286,
      "is": 287,
      "Ġm": 288,
      "Ġwit": 289,
      "Ġwith": 290,
      "Ġh": 291,
      "Ġd": 292,
      "Ġand": 293,
      "Ġg": 294,
      "al": 295,
      "en": 296,
      "Ġl": 297,
      "Ġto": 298,
      "Ġst": 299,
      "om": 300,
      "ra": 301,
      "ding": 302,
      "es": 303,
      "on": 304,
      "ed": 305,
      "ow": 306,
      "ck": 307,
      "Ġis": 308,
      "or": 309,
      "et": 310,
      "un": 311,
      "as": 312,
      "ĠT": 313,
      "ir": 314,
      "Ġman": 315,
      "Ġn": 316,
      "la": 317,
      "op": 318,
      "ting": 319,
      "all": 320,
      "Ġsit": 321,
      "ch": 322,
      "up": 323,
      "ri": 324,
      "oo": 325,
      "Ġne": 326,
      "il": 327,
      "el": 328,
      "ot": 329,
      "ut": 330,
      "Ġwh": 331,
      "id": 332,
      "Ġstan": 333,
      "ur": 334,
      "Ġsitting": 335,
      "ol": 336,
      "ers": 337,
      "ge": 338,
      "Ġare": 339,
      "Ġth": 340,
      "wo": 341,
      "ic": 342,
      "ard": 343,
      "us": 344,
      "ab": 345,
      "ite": 346,
      "Ġat": 347,
      "king": 348,
      "ig": 349,
      "her": 350,
      "Ġco": 351,
      "Ġsk": 352,
      "Ġbe": 353,
      "Ġstanding": 354,
      "ying": 355,
      "Ġe": 356,
      "Ġre": 357,
      "eop": 358,
      "eople": 359,
      "eb": 360,
      "ide": 361,
      "Ġtra": 362,
      "Ġro": 363,
      "oard": 364,
      "ad": 365,
      "xt": 366,
      "able": 367,
      "Ġwom": 368,
      "Ġnext": 369,
      "Ġpeople": 370,
      "Ġk": 371,
      "Ġv": 372,
      "Ġdo": 373,
      "Ġwhite": 374,
      "lo": 375,
      "ss": 376,
      "ile": 377,
      "Ġpla": 378,
      "ff": 379,
      "Ġpl": 380,
      "Ġwoman": 381,
      "ĠThe": 382,
      "Ġit": 383,
      "Ġhol": 384,
      "Ġtable": 385,
      "und": 386,
      "Ġstre": 387,
      "ome": 388,
      "Ġstreet": 389,
      "ood": 390,
      "Ġfro": 391,
      "Ġfi": 392,
      "ve": 393,
      "ĠTwo": 394,
      "ver": 395,
      "Ġbo": 396,
      "ce": 397,
      "Ġri": 398,
      "Ġholding": 399,
      "Ġthat": 400,
      "Ġpar": 401,
      "Ġla": 402,
      "own": 403,
      "Ġsh": 404,
      "Ġgro": 405,
      "Ġtop": 406,
      "ate": 407,
      "Ġy": 408,
      "Ġgra": 409,
      "erson": 410,
      "nt": 411,
      "Ġbat": 412,
      "Ġperson": 413,
      "Ġsm": 414,
      "Ġch": 415,
      "arge": 416,
      "oun": 417,
      "ant": 418,
      "Ġdown": 419,
      "Ġlarge": 420,
      "Ġsome": 421,
      "um": 422,
      "Ġwat": 423,
      "am": 424,
      "and": 425,
      "Ġcat": 426,
      "che": 427,
      "Ġup": 428,
      "Ġfl": 429,
      "Ġpi": 430,
      "eld": 431,
      "Ġsn": 432,
      "ach": 433,
      "ion": 434,
      "ĠS": 435,
      "Ġclo": 436,
      "Ġfield": 437,
      "Ġgroup": 438,
      "Ġout": 439,
      "ul": 440,
      "ke": 441,
      "Ġnear": 442,
      "Ġsnow": 443,
      "Ġcar": 444,
      "Ġdog": 445,
      "se": 446,
      "Ġten": 447,
      "nis": 448,
      "Ġtwo": 449,
      "Ġwal": 450,
      "ign": 451,
      "Ġhis": 452,
      "ack": 453,
      "lack": 454,
      "Ġfront": 455,
      "Ġpark": 456,
      "Ġtennis": 457,
      "Ġtrain": 458,
      "Ġbas": 459,
      "ree": 460,
      "Ġsmall": 461,
      "Ġbus": 462,
      "ug": 463,
      "Ġra": 464,
      "Ġroom": 465,
      "ht": 466,
      "Ġsign": 467,
      "Ġplate": 468,
      "room": 469,
      "ay": 470,
      "Ġsur": 471,
      "row": 472,
      "Ġriding": 473,
      "ure": 474,
      "Ġblack": 475,
      "Ġair": 476,
      "ind": 477,
      "ell": 478,
      "Ġgrass": 479,
      "oung": 480,
      "Ġkit": 481,
      "Ġside": 482,
      "Ġbl": 483,
      "Ġph": 484,
      "Ġby": 485,
      "Ġwater": 486,
      "st": 487,
      "round": 488,
      "im": 489,
      "ue": 490,
      "Ġred": 491,
      "Ġbu": 492,
      "ving": 493,
      "one": 494,
      "Ġloo": 495,
      "eball": 496,
      "ain": 497,
      "Ġyoung": 498,
      "ru": 499,
      "ph": 500,
      "board": 501,
      "Ġbaseball": 502,
      "Ġsurf": 503,
      "side": 504,
      "ass": 505,
      "ffe": 506,
      "Ġbath": 507,
      "Ġskat": 508,
      "Ġbuil": 509,
      "red": 510,
      "ink": 511,
      "Ġbed": 512,
      "ĠAn": 513,
      "reen": 514,
      "air": 515,
      "Ġplay": 516,
      "Ġbuilding": 517,
      "Ġhas": 518,
      "ter": 519,
      "Ġwhile": 520,
      "Ġwalking": 521,
      "Ġskateb": 522,
      "Ġplaying": 523,
      "Ġcom": 524,
      "pt": 525,
      "zz": 526,
      "Ġbathroom": 527,
      "Ġj": 528,
      "ight": 529,
      "Ġfood": 530,
      "yc": 531,
      "ds": 532,
      "Ġgi": 533,
      "Ġfor": 534,
      "Ġher": 535,
      "Ġhor": 536,
      "ct": 537,
      "Ġblue": 538,
      "Ġskateboard": 539,
      "aring": 540,
      "chen": 541,
      "Ġot": 542,
      "Ġpizz": 543,
      "Ġpo": 544,
      "Ġwood": 545,
      "Ġother": 546,
      "Ġkitchen": 547,
      "Ġback": 548,
      "age": 549,
      "ycle": 550,
      "umb": 551,
      "irt": 552,
      "Ġgreen": 553,
      "ep": 554,
      "Ġmot": 555,
      "Ġele": 556,
      "Ġparked": 557,
      "Ġli": 558,
      "Ġboy": 559,
      "ĠP": 560,
      "Ġpizza": 561,
      "ie": 562,
      "Ġgira": 563,
      "Ġball": 564,
      "ugh": 565,
      "Ġse": 566,
      "Ġski": 567,
      "ane": 568,
      "Ġlooking": 569,
      "tle": 570,
      "Ġeat": 571,
      "Ġhe": 572,
      "Ġle": 573,
      "ity": 574,
      "ture": 575,
      "get": 576,
      "Ġover": 577,
      "irl": 578,
      "ran": 579,
      "uple": 580,
      "Ġbeach": 581,
      "Ġmotor": 582,
      "ake": 583,
      "phant": 584,
      "Ġcouple": 585,
      "Ġbear": 586,
      "Ġwe": 587,
      "ilet": 588,
      "Ġben": 589,
      "Ġz": 590,
      "Ġtoilet": 591,
      "Ġdes": 592,
      "ame": 593,
      "Ġelephant": 594,
      "Ġgirl": 595,
      "Ġwa": 596,
      "cks": 597,
      "ent": 598,
      "rel": 599,
      "Ġcon": 600,
      "ild": 601,
      "Ġroad": 602,
      "Ġpic": 603,
      "Ġcomp": 604,
      "ĠTh": 605,
      "Ġmen": 606,
      "led": 607,
      "Ġflying": 608,
      "ĠB": 609,
      "Ġdis": 610,
      "Ġcity": 611,
      "ee": 612,
      "Ġumb": 613,
      "Ġumbrel": 614,
      "Ġpicture": 615,
      "lass": 616,
      "dy": 617,
      "Ġboard": 618,
      "Ġwearing": 619,
      "Ġsl": 620,
      "Ġplayer": 621,
      "ris": 622,
      "ub": 623,
      "Ġclock": 624,
      "Ġmotorc": 625,
      "Ġshe": 626,
      "Ġgame": 627,
      "ous": 628,
      "ptop": 629,
      "Ġal": 630,
      "Ġtow": 631,
      "pp": 632,
      "Ġwind": 633,
      "Ġlaptop": 634,
      "ine": 635,
      "ĠM": 636,
      "ill": 637,
      "veral": 638,
      "Ġlaying": 639,
      "Ġmotorcycle": 640,
      "ebra": 641,
      "Ġfrom": 642,
      "ong": 643,
      "ld": 644,
      "Ġsits": 645,
      "Ġairp": 646,
      "tain": 647,
      "Ġcomput": 648,
      "Ġwooden": 649,
      "Ġchild": 650,
      "rough": 651,
      "Ġint": 652,
      "Ġsand": 653,
      "Ġwindow": 654,
      "Ġsink": 655,
      "rown": 656,
      "Ġr": 657,
      "ks": 658,
      "Ġzebra": 659,
      "ĠW": 660,
      "Ġthrough": 661,
      "Ġtheir": 662,
      "Ġarea": 663,
      "Ġaround": 664,
      "Ġbench": 665,
      "Ġglass": 666,
      "ĠF": 667,
      "Ġtru": 668,
      "ĠC": 669,
      "pen": 670,
      "Ġeating": 671,
      "Ġas": 672,
      "Ġcake": 673,
      "Ġchair": 674,
      "ellow": 675,
      "Ġwall": 676,
      "risb": 677,
      "ase": 678,
      "oto": 679,
      "Ġboat": 680,
      "Ġhorse": 681,
      "ice": 682,
      "ull": 683,
      "Ġbrown": 684,
      "Ġde": 685,
      "Ġyellow": 686,
      "way": 687,
      "Ġphoto": 688,
      "Ġphone": 689,
      "ort": 690,
      "Ġlight": 691,
      "Ġold": 692,
      "Ġhand": 693,
      "Ġsc": 694,
      "risbee": 695,
      "Ġcomputer": 696,
      "Ġund": 697,
      "Ġdesk": 698,
      "ag": 699,
      "ast": 700,
      "Ġunder": 701,
      "Ġstop": 702,
      "Ġgiraffe": 703,
      "Ġoutside": 704,
      "bo": 705,
      "Ġone": 706,
      "uit": 707,
      "Ġopen": 708,
      "Ġlit": 709,
      "Ġbir": 710,
      "ap": 711,
      "Ġliving": 712,
      "ery": 713,
      "Ġsw": 714,
      "Ġtruck": 715,
      "Ġtre": 716,
      "Ġsp": 717,
      "Ġve": 718,
      "Ġfire": 719,
      "ross": 720,
      "Ġclose": 721,
      "Ġte": 722,
      "Ġban": 723,
      "Ġflo": 724,
      "'s": 725,
      "Ġbow": 726,
      "cc": 727,
      "vered": 728,
      "Ġmo": 729,
      "ĠThere": 730,
      "Ġtrees": 731,
      "les": 732,
      "Ġumbrella": 733,
      "ger": 734,
      "Ġbun": 735,
      "Ġsurfboard": 736,
      "Ġcoun": 737,
      "Ġtree": 738,
      "Ġeach": 739,
      "Ġcovered": 740,
      "ady": 741,
      "Ġlot": 742,
      "ation": 743,
      "Ġen": 744,
      "Ġcour": 745,
      "Ġcell": 746,
      "Ġdi": 747,
      "Ġcow": 748,
      "Ġcol": 749,
      "ore": 750,
      "Ġbanan": 751,
      "ĠThree": 752,
      "Ġfil": 753,
      "Ġbowl": 754,
      "hind": 755,
      "Ġbehind": 756,
      "Ġoff": 757,
      "qu": 758,
      "Ġsuit": 759,
      "Ġsky": 760,
      "Ġbri": 761,
      "pla": 762,
      "Ġvery": 763,
      "ak": 764,
      "ses": 765,
      "Ġcut": 766,
      "ves": 767,
      "Ġso": 768,
      "Ġfilled": 769,
      "ground": 770,
      "uch": 771,
      "ĠO": 772,
      "Ġcourt": 773,
      "Ġoran": 774,
      "ump": 775,
      "if": 776,
      "Ġinto": 777,
      "Ġits": 778,
      "Ġairpl": 779,
      "ets": 780,
      "Ġfen": 781,
      "Ġlittle": 782,
      "gether": 783,
      "Ġtogether": 784,
      "Ġflow": 785,
      "aking": 786,
      "eat": 787,
      "Ġkite": 788,
      "Ġshow": 789,
      "ors": 790,
      "Ġrun": 791,
      "Ġabo": 792,
      "Ġrack": 793,
      "ction": 794,
      "ich": 795,
      "ĠSe": 796,
      "Ġbi": 797,
      "Ġsandw": 798,
      "Ġdri": 799,
      "ts": 800,
      "iew": 801,
      "ush": 802,
      "ly": 803,
      "Ġmoun": 804,
      "Ġskis": 805,
      "Ġbackground": 806,
      "dle": 807,
      "alk": 808,
      "ĠSeveral": 809,
      "Ġinside": 810,
      "Ġshirt": 811,
      "Ġstands": 812,
      "ped": 813,
      "Ġpre": 814,
      "Ġdispla": 815,
      "dr": 816,
      "Ġairplane": 817,
      "irro": 818,
      "Ġmirro": 819,
      "Ġcouch": 820,
      "Ġgo": 821,
      "Ġsheep": 822,
      "Ġfrisbee": 823,
      "Ġmirror": 824,
      "Ġbunch": 825,
      "Ġswing": 826,
      "Ġhy": 827,
      "cean": 828,
      "ĠI": 829,
      "Ġapp": 830,
      "Ġview": 831,
      "Ġocean": 832,
      "Ġcounter": 833,
      "ffic": 834,
      "Ġbig": 835,
      "walk": 836,
      "ĠPeople": 837,
      "Ġpie": 838,
      "drant": 839,
      "do": 840,
      "ry": 841,
      "Ġhydrant": 842,
      "ches": 843,
      "Ġbird": 844,
      "orm": 845,
      "eddy": 846,
      "Ġmid": 847,
      "other": 848,
      "ĠMan": 849,
      "Ġmany": 850,
      "Ġfence": 851,
      "Ġhill": 852,
      "Ġdisplay": 853,
      "rent": 854,
      "Ġdirt": 855,
      "Ġhot": 856,
      "Ġplane": 857,
      "uff": 858,
      "Ġpass": 859,
      "Ġanother": 860,
      "Ġteddy": 861,
      "imal": 862,
      "Ġveget": 863,
      "Ġtraffic": 864,
      "Ġtri": 865,
      "Ġref": 866,
      "Ġfloor": 867,
      "Ġche": 868,
      "Ġsandwich": 869,
      "ang": 870,
      "ching": 871,
      "ner": 872,
      "Ġwomen": 873,
      "ĠL": 874,
      "ment": 875,
      "Ġanimal": 876,
      "Ġhead": 877,
      "ies": 878,
      "ruit": 879,
      "Ġstand": 880,
      "mp": 881,
      "fferent": 882,
      "Ġsidewalk": 883,
      "Ġorange": 884,
      "Ġvegetable": 885,
      "Ġwave": 886,
      "Ġjump": 887,
      "ress": 888,
      "Ġmountain": 889,
      "ffes": 890,
      "ook": 891,
      "etting": 892,
      "Ġhit": 893,
      "Ġfe": 894,
      "ouse": 895,
      "Ġfruit": 896,
      "Ġdifferent": 897,
      "ted": 898,
      "Ġtracks": 899,
      "iling": 900,
      "Ġtall": 901,
      "Ġbab": 902,
      "Ġvase": 903,
      "Ġsa": 904,
      "Ġmet": 905,
      "Ġthere": 906,
      "Ġalong": 907,
      "Ġhorses": 908,
      "Ġflowers": 909,
      "Ġday": 910,
      "ĠG": 911,
      "Ġracket": 912,
      "ace": 913,
      "Ġplat": 914,
      "Ġparking": 915,
      "Ġim": 916,
      "Ġbaby": 917,
      "ac": 918,
      "Ġground": 919,
      "ip": 920,
      "Ġbeing": 921,
      "Ġtower": 922,
      "Ġthree": 923,
      "Ġgiraffes": 924,
      "Ġsun": 925,
      "Ġrid": 926,
      "Ġgrassy": 927,
      "Ġtie": 928,
      "Ġgraz": 929,
      "ugg": 930,
      "uring": 931,
      "Ġbro": 932,
      "Ġar": 933,
      "Ġbot": 934,
      "Ġsnowboard": 935,
      "ren": 936,
      "ĠTH": 937,
      "vel": 938,
      "Ġfull": 939,
      "Ġvegetables": 940,
      "Ġslop": 941,
      "ket": 942,
      "hes": 943,
      "our": 944,
      "Ġus": 945,
      "Ġcars": 946,
      "ari": 947,
      "Ġhang": 948,
      "Ġdr": 949,
      "Ġstuff": 950,
      "ated": 951,
      "ey": 952,
      "ick": 953,
      "Ġmiddle": 954,
      "Ġbananas": 955,
      "Ġrest": 956,
      "Ġready": 957,
      "ĠSome": 958,
      "Ġcl": 959,
      "ven": 960,
      "Ġstation": 961,
      "Ġelephants": 962,
      "te": 963,
      "hing": 964,
      "ale": 965,
      "rying": 966,
      "Ġha": 967,
      "Ġdress": 968,
      "igh": 969,
      "Ġun": 970,
      "Ġimage": 971,
      "Ġhat": 972,
      "Ġcup": 973,
      "Ġpro": 974,
      "Ġslope": 975,
      "ator": 976,
      "urn": 977,
      "Ġseveral": 978,
      "Ġdriving": 979,
      "Ġbes": 980,
      "Ġbike": 981,
      "Ġcor": 982,
      "sing": 983,
      "Ġbox": 984,
      "Ġgu": 985,
      "Ġzebras": 986,
      "IN": 987,
      "Ġthem": 988,
      "Ġcrow": 989,
      "Ġtaking": 990,
      "Ġsigns": 991,
      "Ġcam": 992,
      "Ġac": 993,
      "Ġstuffed": 994,
      "ade": 995,
      "Ġcross": 996,
      "ler": 997,
      "rol": 998,
      "oli": 999,
      "Ġwine": 1000,
      "Ġlo": 1001,
      "Ġpiece": 1002,
      "Ġprep": 1003,
      "Ġabove": 1004,
      "ess": 1005,
      "ult": 1006,
      "Ġcrowd": 1007,
      "ched": 1008,
      "Ġskiing": 1009,
      "Ġacross": 1010,
      "Ġskate": 1011,
      "Ġbeside": 1012,
      "Ġrefri": 1013,
      "Ġgrazing": 1014,
      "Ġkn": 1015,
      "dge": 1016,
      "Ġrefriger": 1017,
      "uggage": 1018,
      "Ġcont": 1019,
      "Ġwor": 1020,
      "Ġsnowy": 1021,
      "ccoli": 1022,
      "Ġdoub": 1023,
      "Ġduring": 1024,
      "Ġsto": 1025,
      "Ġlong": 1026,
      "Ġtal": 1027,
      "uts": 1028,
      "Ġem": 1029,
      "are": 1030,
      "Ġad": 1031,
      "ĠThis": 1032,
      "ms": 1033,
      "Ġluggage": 1034,
      "Ġrefrigerator": 1035,
      "Ġkey": 1036,
      "Ġtravel": 1037,
      "Ġvari": 1038,
      "Ġtele": 1039,
      "ii": 1040,
      "Ġfri": 1041,
      "Ġdoor": 1042,
      "Ġcows": 1043,
      "der": 1044,
      "Ġbroccoli": 1045,
      "Ġglasses": 1046,
      "cor": 1047,
      "Ġholds": 1048,
      "Ġdoing": 1049,
      "ĠTHE": 1050,
      "ĠD": 1051,
      "Ġhanging": 1052,
      "iting": 1053,
      "Ġdouble": 1054,
      "RE": 1055,
      "ĠH": 1056,
      "Ġcamer": 1057,
      "Ġpink": 1058,
      "Ġguy": 1059,
      "Ġpast": 1060,
      "Ġbic": 1061,
      "Ġbag": 1062,
      "Ġcle": 1063,
      "Ġkid": 1064,
      "ese": 1065,
      "las": 1066,
      "Ġdon": 1067,
      "Ġherd": 1068,
      "ust": 1069,
      "Ġcamera": 1070,
      "Ġbuildings": 1071,
      "Ġrem": 1072,
      "Ġcutting": 1073,
      "ning": 1074,
      "Ġkites": 1075,
      "Ġcolor": 1076,
      "ING": 1077,
      "ful": 1078,
      "vis": 1079,
      "Ġkeyboard": 1080,
      "Ġpair": 1081,
      "Ġpassen": 1082,
      "Ġcorner": 1083,
      "Ġwalk": 1084,
      "pty": 1085,
      "Ġgoing": 1086,
      "Ġoven": 1087,
      "Ġpole": 1088,
      "Ġdecor": 1089,
      "Ġtrick": 1090,
      "Ġpap": 1091,
      "Ġrac": 1092,
      "Ġtalking": 1093,
      "Ġhigh": 1094,
      "Ġthis": 1095,
      "Ġwho": 1096,
      "Ġcontrol": 1097,
      "Ġser": 1098,
      "Ġper": 1099,
      "vision": 1100,
      "Ġcab": 1101,
      "Ġbicycle": 1102,
      "Ġswinging": 1103,
      "Ġempty": 1104,
      "Ġtelevision": 1105,
      "rush": 1106,
      "Ġwatching": 1107,
      "Ġlooks": 1108,
      "Ġjumping": 1109,
      "form": 1110,
      "Ġchairs": 1111,
      "Ġairport": 1112,
      "Ġtrack": 1113,
      "sh": 1114,
      "Ġumbrellas": 1115,
      "Ġme": 1116,
      "Ġstove": 1117,
      "Ġchildren": 1118,
      "Ġbottle": 1119,
      "Ġmar": 1120,
      "Ġposing": 1121,
      "Ġvide": 1122,
      "Ġvideo": 1123,
      "Ġpot": 1124,
      "Ġdin": 1125,
      "Ġpit": 1126,
      "Ġbre": 1127,
      "Ġtopped": 1128,
      "ght": 1129,
      "Ġag": 1130,
      "Ġcur": 1131,
      "Ġtraveling": 1132,
      "ccer": 1133,
      "ten": 1134,
      "Ġste": 1135,
      "Ġsuitc": 1136,
      "ans": 1137,
      "Ġgetting": 1138,
      "Ġset": 1139,
      "Ġdeck": 1140,
      "Ġjet": 1141,
      "Ġsoccer": 1142,
      "Ġanimals": 1143,
      "Ġsmiling": 1144,
      "ĠĠ": 1145,
      "ces": 1146,
      "Ġcabin": 1147,
      "Ġcontain": 1148,
      "Ġusing": 1149,
      "ire": 1150,
      "Ġpat": 1151,
      "Ġboats": 1152,
      "Ġbody": 1153,
      "arding": 1154,
      "Ġremot": 1155,
      "Ġfore": 1156,
      "ping": 1157,
      "Ġthrow": 1158,
      "oes": 1159,
      "Ġhome": 1160,
      "Ġcolorful": 1161,
      "ft": 1162,
      "ffee": 1163,
      "Ġbanana": 1164,
      "Ġnight": 1165,
      "Ġmon": 1166,
      "Ġrail": 1167,
      "pe": 1168,
      "Ġagain": 1169,
      "Ġlady": 1170,
      "Ġall": 1171,
      "Ġagainst": 1172,
      "Ġcoffee": 1173,
      "Ġplates": 1174,
      "Ġpain": 1175,
      "Ġcheese": 1176,
      "Ġpaper": 1177,
      "oth": 1178,
      "quet": 1179,
      "Ġlea": 1180,
      "Ġite": 1181,
      "ĠFrisbee": 1182,
      "Ġdogs": 1183,
      "Ġrunway": 1184,
      "ud": 1185,
      "Ġmeat": 1186,
      "Ġhim": 1187,
      "cher": 1188,
      "Ġcarrying": 1189,
      "ive": 1190,
      "Ġpull": 1191,
      "Ġbar": 1192,
      "Ġbirds": 1193,
      "Ġhouse": 1194,
      "leep": 1195,
      "Ġriver": 1196,
      "aur": 1197,
      "omet": 1198,
      "akes": 1199,
      "gs": 1200,
      "aurant": 1201,
      "Ġplayers": 1202,
      "Ġpol": 1203,
      "Ġbedroom": 1204,
      "Ġbrick": 1205,
      "ian": 1206,
      "est": 1207,
      "Ġrestaurant": 1208,
      "iss": 1209,
      "Ġwaiting": 1210,
      "Ġdrink": 1211,
      "omething": 1212,
      "ark": 1213,
      "Ġlin": 1214,
      "Ġmotorcycles": 1215,
      "ĠWii": 1216,
      "Ġtray": 1217,
      "Ġlights": 1218,
      "clo": 1219,
      "ool": 1220,
      "Ġbears": 1221,
      "Ġramp": 1222,
      "Ġsomething": 1223,
      "Ġlots": 1224,
      "uth": 1225,
      "ored": 1226,
      "Ġcan": 1227,
      "Ġor": 1228,
      "Ġshel": 1229,
      "Ġmetal": 1230,
      "Ġvarious": 1231,
      "clos": 1232,
      "ave": 1233,
      "Ġboo": 1234,
      "Ġshower": 1235,
      "Ġabout": 1236,
      "ced": 1237,
      "Ġskateboarder": 1238,
      "ĠR": 1239,
      "Ġenclos": 1240,
      "Ġremote": 1241,
      "Ġbook": 1242,
      "Ġclou": 1243,
      "Ġoutdo": 1244,
      "Ġdough": 1245,
      "alf": 1246,
      "Ġplant": 1247,
      "Ġitems": 1248,
      "ases": 1249,
      "gra": 1250,
      "ial": 1251,
      "Ġrow": 1252,
      "Ġcarro": 1253,
      "Ġracquet": 1254,
      "Ġres": 1255,
      "Ġface": 1256,
      "arm": 1257,
      "Ġmic": 1258,
      "Ġtile": 1259,
      "oc": 1260,
      "Ġrunning": 1261,
      "Ġpile": 1262,
      "Ġatt": 1263,
      "Ġtoy": 1264,
      "Ġhands": 1265,
      "Ġskier": 1266,
      "Ġsleep": 1267,
      "ty": 1268,
      "Ġhel": 1269,
      "Ġdecker": 1270,
      "erse": 1271,
      "Ġpassenger": 1272,
      "ars": 1273,
      "Ġline": 1274,
      "Ġrain": 1275,
      "Ġslic": 1276,
      "Ġpur": 1277,
      "Ġmouth": 1278,
      "Ġdoughn": 1279,
      "Ġbusy": 1280,
      "Ġstore": 1281,
      "Ġscreen": 1282,
      "Ġdressed": 1283,
      "ĠN": 1284,
      "Ġinterse": 1285,
      "raw": 1286,
      "Ġtoward": 1287,
      "Ġpreparing": 1288,
      "Ġlying": 1289,
      "Ġce": 1290,
      "Ġmonit": 1291,
      "Ġphotogra": 1292,
      "Ġsil": 1293,
      "Ġintersection": 1294,
      "ĠIS": 1295,
      "Ġsurfer": 1296,
      "Ġslice": 1297,
      "Ġnumb": 1298,
      "ĠFour": 1299,
      "IT": 1300,
      "uce": 1301,
      "ating": 1302,
      "Ġlike": 1303,
      "we": 1304,
      "Ġbrush": 1305,
      "ife": 1306,
      "ple": 1307,
      "Ġsuitcase": 1308,
      "ooking": 1309,
      "Ġrides": 1310,
      "Ġsurfing": 1311,
      "Ġgre": 1312,
      "Ġmale": 1313,
      "Ġrock": 1314,
      "ĠV": 1315,
      "Ġpulling": 1316,
      "Ġjack": 1317,
      "Ġshown": 1318,
      "hic": 1319,
      "phone": 1320,
      "ones": 1321,
      "ges": 1322,
      "Ġhalf": 1323,
      "art": 1324,
      "Ġmade": 1325,
      "issors": 1326,
      "Ġsurround": 1327,
      "Ġwhe": 1328,
      "to": 1329,
      "Ġty": 1330,
      "Ġtub": 1331,
      "Ġgray": 1332,
      "Ġdark": 1333,
      "iz": 1334,
      "ading": 1335,
      "Ġpan": 1336,
      "Ġlook": 1337,
      "Ġnumber": 1338,
      "Ġno": 1339,
      "Ġenclosure": 1340,
      "ny": 1341,
      "Ġbatter": 1342,
      "Ġzoo": 1343,
      "Ġsilver": 1344,
      "cl": 1345,
      "Ġseat": 1346,
      "Ġmicrow": 1347,
      "Ġknife": 1348,
      "Ġscissors": 1349,
      "Ġvehic": 1350,
      "Ġcontroller": 1351,
      "Ġmat": 1352,
      "ĠON": 1353,
      "ll": 1354,
      "AN": 1355,
      "ĠE": 1356,
      "Ġjacket": 1357,
      "Ġsurrounded": 1358,
      "Ġforest": 1359,
      "iform": 1360,
      "Ġphotograph": 1361,
      "ron": 1362,
      "Ġfour": 1363,
      "Ġtooth": 1364,
      "ond": 1365,
      "Ġbet": 1366,
      "aning": 1367,
      "Ġuniform": 1368,
      "Ġmicrowave": 1369,
      "Ġsleeping": 1370,
      "Ġbridge": 1371,
      "Ġmeal": 1372,
      "ash": 1373,
      "ĠSt": 1374,
      "ĠMany": 1375,
      "Ġway": 1376,
      "ather": 1377,
      "ween": 1378,
      "Ġbik": 1379,
      "Ġshowing": 1380,
      "Ġsal": 1381,
      "Ġpost": 1382,
      "Ġbetween": 1383,
      "ĠY": 1384,
      "Ġcarrots": 1385,
      "Ġwalks": 1386,
      "Ġdecorated": 1387,
      "AT": 1388,
      "eath": 1389,
      "anes": 1390,
      "ved": 1391,
      "Ġlined": 1392,
      "Ġlake": 1393,
      "Ġhair": 1394,
      "ĠWom": 1395,
      "Ġcolored": 1396,
      "Ġdonuts": 1397,
      "Ġcabinets": 1398,
      "Ġfew": 1399,
      "Ġbread": 1400,
      "Ġblan": 1401,
      "ne": 1402,
      "ries": 1403,
      "pes": 1404,
      "ached": 1405,
      "iture": 1406,
      "urniture": 1407,
      "Ġcand": 1408,
      "ime": 1409,
      "lic": 1410,
      "Ġbuses": 1411,
      "Ġbright": 1412,
      "Ġpill": 1413,
      "Ġfurniture": 1414,
      "Ġcount": 1415,
      "Ġscen": 1416,
      "gg": 1417,
      "Ġmouse": 1418,
      "Ġ\"": 1419,
      "Ġkids": 1420,
      "Ġshop": 1421,
      "Ġam": 1422,
      "atoes": 1423,
      "Ġpurple": 1424,
      "Ġstri": 1425,
      "pped": 1426,
      "Ġolder": 1427,
      "Ġbooks": 1428,
      "Ġcloudy": 1429,
      "ĠCh": 1430,
      "olate": 1431,
      "Ġstick": 1432,
      "Ġoranges": 1433,
      "ser": 1434,
      "Ġthrowing": 1435,
      "Ġdock": 1436,
      "ER": 1437,
      "Ġboys": 1438,
      "ocolate": 1439,
      "Ġattached": 1440,
      "Ġgrey": 1441,
      "ĠTV": 1442,
      "Ġdisplayed": 1443,
      "inking": 1444,
      "elf": 1445,
      "Ġhave": 1446,
      "Ġonto": 1447,
      "Ġgirls": 1448,
      "Ġoutdoor": 1449,
      "Ġbran": 1450,
      "Ġpick": 1451,
      "old": 1452,
      "Ġex": 1453,
      "Ġleaning": 1454,
      "ish": 1455,
      "Ġfork": 1456,
      "Ġincl": 1457,
      "Ġmaking": 1458,
      "Ġdish": 1459,
      "met": 1460,
      "ance": 1461,
      "Ġwaves": 1462,
      "Ġcrossing": 1463,
      "Ġmonitor": 1464,
      "Ġperform": 1465,
      "ows": 1466,
      "Ġsalad": 1467,
      "ĠWoman": 1468,
      "day": 1469,
      "Ġpe": 1470,
      "Ġdrinking": 1471,
      "Ġchocolate": 1472,
      "ily": 1473,
      "Ġcoming": 1474,
      "Ġskiers": 1475,
      "Ġdining": 1476,
      "oon": 1477,
      "Ġshelf": 1478,
      "Ġrocks": 1479,
      "Ġpen": 1480,
      "Ġseen": 1481,
      "Ġstat": 1482,
      "Ġcats": 1483,
      "Ġscene": 1484,
      "aut": 1485,
      "Ġclean": 1486,
      "Ġlush": 1487,
      "Ġhitting": 1488,
      "ings": 1489,
      "irth": 1490,
      "int": 1491,
      "Ġwatch": 1492,
      "Ġelect": 1493,
      "male": 1494,
      "Ġho": 1495,
      "Ġlamp": 1496,
      "Ġwindows": 1497,
      "Ġmarket": 1498,
      "ble": 1499,
      "ĠOF": 1500,
      "irthday": 1501,
      "Ġmeter": 1502,
      "els": 1503,
      "LE": 1504,
      "Ġfruits": 1505,
      "de": 1506,
      "Ġresting": 1507,
      "by": 1508,
      "Ġwalls": 1509,
      "Ġadult": 1510,
      "Ġstone": 1511,
      "Ġcomm": 1512,
      "ary": 1513,
      "Ġpainted": 1514,
      "Ġob": 1515,
      "astic": 1516,
      "Ġoffice": 1517,
      "Ġtowards": 1518,
      "Ġcook": 1519,
      "Ġturn": 1520,
      "Ġbirthday": 1521,
      "Ġspe": 1522,
      "Ġflower": 1523,
      "eth": 1524,
      "Ġmult": 1525,
      "oot": 1526,
      "Ġapples": 1527,
      "Ġfries": 1528,
      "Ġbasket": 1529,
      "Ġsetting": 1530,
      "Ġcatch": 1531,
      "Ġclot": 1532,
      "Ġwork": 1533,
      "Ġeng": 1534,
      "Ġleaves": 1535,
      "Ġed": 1536,
      "ents": 1537,
      "per": 1538,
      "Ġfla": 1539,
      "Ġpolice": 1540,
      "Ġplastic": 1541,
      "Ġsunny": 1542,
      "Ġcountry": 1543,
      "Ġblanket": 1544,
      "Ġsomeone": 1545,
      "Ġbeen": 1546,
      "ats": 1547,
      "Ġteeth": 1548,
      "aching": 1549,
      "Ġfre": 1550,
      "ĠSm": 1551,
      "Ġlay": 1552,
      "Ġfemale": 1553,
      "Ġclear": 1554,
      "Ġass": 1555,
      "autif": 1556,
      "jo": 1557,
      "ublic": 1558,
      "Ġworking": 1559,
      "ĠIN": 1560,
      "less": 1561,
      "Ġcatcher": 1562,
      "Ġpath": 1563,
      "Ġhelmet": 1564,
      "Ġtom": 1565,
      "Ġapple": 1566,
      "Ġpictures": 1567,
      "Ġenjo": 1568,
      "ear": 1569,
      "Ġtrying": 1570,
      "Ġpa": 1571,
      "Ġtables": 1572,
      "Ġshot": 1573,
      "ĠBlack": 1574,
      "Ġmountains": 1575,
      "Ġmoving": 1576,
      "autiful": 1577,
      "Ġplatform": 1578,
      "Ġpublic": 1579,
      "Ġnot": 1580,
      "Ġshort": 1581,
      "Ġbase": 1582,
      "Ġtv": 1583,
      "Ġedge": 1584,
      "sp": 1585,
      "Ġsqu": 1586,
      "Ġstopped": 1587,
      "Ġdonut": 1588,
      "Ġstack": 1589,
      "Ġdist": 1590,
      "neath": 1591,
      "Ġcre": 1592,
      "Ġunderneath": 1593,
      "Ġsurfboards": 1594,
      "Ġsub": 1595,
      "Ġbikes": 1596,
      "oarding": 1597,
      "tered": 1598,
      "Ġtopping": 1599,
      "Ġtoothb": 1600,
      "Ġbel": 1601,
      "lection": 1602,
      "Ġride": 1603,
      "Ġbeautiful": 1604,
      "oll": 1605,
      "ety": 1606,
      "Ġsmile": 1607,
      "ĠAN": 1608,
      "Ġsnowboarder": 1609,
      "hed": 1610,
      "Ġskateboarding": 1611,
      "Ġpart": 1612,
      "Ġcellphone": 1613,
      "hered": 1614,
      "Ġdraw": 1615,
      "Ġhaving": 1616,
      "Ġyard": 1617,
      "Ġcarri": 1618,
      "Ġshap": 1619,
      "Ġcart": 1620,
      "Ġvan": 1621,
      "wn": 1622,
      "AR": 1623,
      "ally": 1624,
      "ĠSomeone": 1625,
      "Ġlap": 1626,
      "Ġtime": 1627,
      "Ġfac": 1628,
      "Ġpitch": 1629,
      "Ġslices": 1630,
      "Ġstatue": 1631,
      "Ġpep": 1632,
      "Ġshows": 1633,
      "ĠK": 1634,
      "run": 1635,
      "Ġca": 1636,
      "Ġplaced": 1637,
      "Ġbranch": 1638,
      "Ġsing": 1639,
      "Ġsho": 1640,
      "ĠSmall": 1641,
      "Ġsauce": 1642,
      "len": 1643,
      "Ġnice": 1644,
      "ĠTHERE": 1645,
      "ric": 1646,
      "Ġwire": 1647,
      "ist": 1648,
      "Ġshore": 1649,
      "Ġur": 1650,
      "Ġsandy": 1651,
      "Ġappl": 1652,
      "ĠYoung": 1653,
      "Ġbut": 1654,
      "Ġfam": 1655,
      "Ġcomputers": 1656,
      "Ġpassing": 1657,
      "Ġwet": 1658,
      "Ġcase": 1659,
      "Ġsurface": 1660,
      "Ġeaten": 1661,
      "Ġdire": 1662,
      "Ġvehicle": 1663,
      "top": 1664,
      "Ġdoughnut": 1665,
      "Ġwild": 1666,
      "Ġvases": 1667,
      "Ġassort": 1668,
      "gers": 1669,
      "Ġbrushing": 1670,
      "ition": 1671,
      "Ġmil": 1672,
      "Ġperched": 1673,
      "armac": 1674,
      "Ġboards": 1675,
      "Ġapplian": 1676,
      "Ġpieces": 1677,
      "ares": 1678,
      "Ġland": 1679,
      "Ġpitcher": 1680,
      "Ġtarmac": 1681,
      "Ġtown": 1682,
      "ĠGro": 1683,
      "ling": 1684,
      "ĠLarge": 1685,
      "Ġtan": 1686,
      "Ġput": 1687,
      "Ġcooking": 1688,
      "Ġjust": 1689,
      "ĠGroup": 1690,
      "Ġreading": 1691,
      "ix": 1692,
      "Ġgar": 1693,
      "Ġdinner": 1694,
      "Ġtypes": 1695,
      "ines": 1696,
      "eeding": 1697,
      "ITH": 1698,
      "inten": 1699,
      "Ġgat": 1700,
      "ĠWITH": 1701,
      "intendo": 1702,
      "dern": 1703,
      "Ġfresh": 1704,
      "ect": 1705,
      "Ġaf": 1706,
      "ley": 1707,
      "Ġconc": 1708,
      "Ġtrun": 1709,
      "Ġothers": 1710,
      "Ġwatches": 1711,
      "ages": 1712,
      "Ġtake": 1713,
      "Ġtoppings": 1714,
      "Ġfamily": 1715,
      "ides": 1716,
      "Ġpizzas": 1717,
      "Ġlaptops": 1718,
      "Ġarm": 1719,
      "Ġroll": 1720,
      "Ġkind": 1721,
      "Ġenjoying": 1722,
      "Ġengine": 1723,
      "Ġgri": 1724,
      "Ġneck": 1725,
      "Ġdistance": 1726,
      "ized": 1727,
      "Ġthey": 1728,
      "Ġtiled": 1729,
      "Ġdesser": 1730,
      "ely": 1731,
      "road": 1732,
      "Ġfeat": 1733,
      "Ġpret": 1734,
      "th": 1735,
      "icken": 1736,
      "iple": 1737,
      "Ġdoughnuts": 1738,
      "Ġhotel": 1739,
      "Ġperforming": 1740,
      "Ġdry": 1741,
      "Ġsingle": 1742,
      "inal": 1743,
      "os": 1744,
      "Ġpack": 1745,
      "htub": 1746,
      "bor": 1747,
      "iti": 1748,
      "Ġey": 1749,
      "Ġrice": 1750,
      "Ġgathered": 1751,
      "ail": 1752,
      "Ġsof": 1753,
      "Ġsty": 1754,
      "Ġflat": 1755,
      "Ġguys": 1756,
      "Ġbathtub": 1757,
      "Ġtricks": 1758,
      "Ġafter": 1759,
      "ins": 1760,
      "Ġnew": 1761,
      "cial": 1762,
      "Ġstair": 1763,
      "Ġbowls": 1764,
      "Ġmounted": 1765,
      "Ġpretty": 1766,
      "Ġphones": 1767,
      "Ġappliances": 1768,
      "Ġplace": 1769,
      "Ġtrains": 1770,
      "Ġtrucks": 1771,
      "Ġequ": 1772,
      "Ġwoods": 1773,
      "Ġcurb": 1774,
      "ject": 1775,
      "vers": 1776,
      "Ġbenches": 1777,
      "Ġsee": 1778,
      "Ġgear": 1779,
      "Ġpas": 1780,
      "Ġvariety": 1781,
      "Ġbeer": 1782,
      "que": 1783,
      "ĠU": 1784,
      "ads": 1785,
      "Ġchicken": 1786,
      "Ġleft": 1787,
      "Ġfeeding": 1788,
      "Ġsail": 1789,
      "Ġfly": 1790,
      "Ġcandles": 1791,
      "edest": 1792,
      "ffiti": 1793,
      "place": 1794,
      "Ġfenced": 1795,
      "Ġwell": 1796,
      "Ġend": 1797,
      "Ġplants": 1798,
      "Ġpasture": 1799,
      "bb": 1800,
      "ming": 1801,
      "Ġhotdo": 1802,
      "Ġglo": 1803,
      "ĠOne": 1804,
      "Ġcurtain": 1805,
      "Ġflies": 1806,
      "enter": 1807,
      "Ġmodern": 1808,
      "Ġ.": 1809,
      "Ġpoles": 1810,
      "Ġcute": 1811,
      "Ġcontaining": 1812,
      "Ġteam": 1813,
      "ures": 1814,
      "iding": 1815,
      "mb": 1816,
      "Ġtran": 1817,
      "ĠAND": 1818,
      "Ġclut": 1819,
      "Ġpassengers": 1820,
      "Ġcenter": 1821,
      "Ġright": 1822,
      "Ġrailroad": 1823,
      "Ġdirty": 1824,
      "Ġdrinks": 1825,
      "Ġarran": 1826,
      "ronic": 1827,
      "intage": 1828,
      "Ġcarriage": 1829,
      "rete": 1830,
      "chool": 1831,
      "Ġconcrete": 1832,
      "Ġbal": 1833,
      "Ġswim": 1834,
      "ips": 1835,
      "Ġbelow": 1836,
      "Ġwii": 1837,
      "Ġspoon": 1838,
      "Ġmatch": 1839,
      "uches": 1840,
      "Ġind": 1841,
      "iches": 1842,
      "Ġgraffiti": 1843,
      "Ġwas": 1844,
      "Ġfoot": 1845,
      "pack": 1846,
      "Ġfo": 1847,
      "Ġtoothbrush": 1848,
      "Ġstep": 1849,
      "ball": 1850,
      "Ġshoes": 1851,
      "Ġfireplace": 1852,
      "OM": 1853,
      "Ġschool": 1854,
      "anc": 1855,
      "Ġsofa": 1856,
      "Ġpul": 1857,
      "uding": 1858,
      "Ġbags": 1859,
      "head": 1860,
      "Ġonion": 1861,
      "Ġpoin": 1862,
      "Ġbreak": 1863,
      "ĠNintendo": 1864,
      "man": 1865,
      "ram": 1866,
      "iv": 1867,
      "light": 1868,
      "anding": 1869,
      "Ġincluding": 1870,
      "Ġbottles": 1871,
      "uck": 1872,
      "ession": 1873,
      "Ġpulled": 1874,
      "Ġsteel": 1875,
      "lin": 1876,
      "Ġclos": 1877,
      "Ġelectronic": 1878,
      "Ġhu": 1879,
      "Ġcrowded": 1880,
      "ames": 1881,
      "Ġpedest": 1882,
      "Ġamong": 1883,
      "ged": 1884,
      "Ġwr": 1885,
      "Ġcattle": 1886,
      "Ġfridge": 1887,
      "Ġstriped": 1888,
      "ied": 1889,
      "Ġsandwiches": 1890,
      "ini": 1891,
      "ĠST": 1892,
      "Ġbackpack": 1893,
      "Ġbeds": 1894,
      "fe": 1895,
      "upp": 1896,
      "Ġplanes": 1897,
      "Ġtakes": 1898,
      "Ġalone": 1899,
      "Ġfeet": 1900,
      "Ġnearby": 1901,
      "Ġpillows": 1902,
      "Ġtrunk": 1903,
      "Ġoffic": 1904,
      "Ġequip": 1905,
      "ual": 1906,
      "Ġap": 1907,
      "Ġreaching": 1908,
      "Ġcabinet": 1909,
      "Ġserved": 1910,
      "ens": 1911,
      "Ġskateboards": 1912,
      "rist": 1913,
      "Ġequipment": 1914,
      "Ġvintage": 1915,
      "Ġkne": 1916,
      "Ġclothes": 1917,
      "AL": 1918,
      "Ġloc": 1919,
      "Ġlet": 1920,
      "Ġtomatoes": 1921,
      "Ġhuge": 1922,
      "Ġbushes": 1923,
      "Ġwra": 1924,
      "Ġlow": 1925,
      "Ġboxes": 1926,
      "Ġpainting": 1927,
      "ered": 1928,
      "urch": 1929,
      "Ġcatching": 1930,
      "Ġfloating": 1931,
      "Ġplays": 1932,
      "Ġcontainer": 1933,
      "Ġcream": 1934,
      "Ġatop": 1935,
      "fession": 1936,
      "Ġsliced": 1937,
      "eling": 1938,
      "Ġboth": 1939,
      "Ġdirection": 1940,
      "Ġcr": 1941,
      "Ġdeser": 1942,
      "Ġspace": 1943,
      "Ġmess": 1944,
      "ural": 1945,
      "ical": 1946,
      "Ġsinks": 1947,
      "Ġobject": 1948,
      "owing": 1949,
      "Ġtrail": 1950,
      "fessional": 1951,
      "Ġshaped": 1952,
      "stru": 1953,
      "Ġposes": 1954,
      "aken": 1955,
      "Ġputting": 1956,
      "Ġqu": 1957,
      "Ġaway": 1958,
      "ercial": 1959,
      "Ġpose": 1960,
      "iness": 1961,
      "Ġgiant": 1962,
      "Ġtowel": 1963,
      "aked": 1964,
      "Ġtaken": 1965,
      "ident": 1966,
      "Ġfoods": 1967,
      "Ġchurch": 1968,
      "its": 1969,
      "Ġserving": 1970,
      "RO": 1971,
      "Ġdev": 1972,
      "ashion": 1973,
      "Ġsticking": 1974,
      "Ġstaring": 1975,
      "glass": 1976,
      "elling": 1977,
      "ĠBo": 1978,
      "Ġart": 1979,
      "Ġpotatoes": 1980,
      "Ġround": 1981,
      "ycl": 1982,
      "Ġpos": 1983,
      "boarding": 1984,
      "Ġprepares": 1985,
      "Ġsuitcases": 1986,
      "Ġstyle": 1987,
      "ber": 1988,
      "Ġpad": 1989,
      "Ġhay": 1990,
      "Ġwhere": 1991,
      "Ġsmiles": 1992,
      "ons": 1993,
      "Ġlegs": 1994,
      "EN": 1995,
      "self": 1996,
      "Ġblen": 1997,
      "Ġdishes": 1998,
      "Ġlays": 1999,
      "mas": 2000,
      "Ġbusiness": 2001,
      "alm": 2002,
      "ract": 2003,
      "Ġserve": 2004,
      "IS": 2005,
      "fast": 2006,
      "ato": 2007,
      "Ġwhich": 2008,
      "Ġcement": 2009,
      "Ġdessert": 2010,
      "wing": 2011,
      "Ġwed": 2012,
      "Ġshorts": 2013,
      "OP": 2014,
      "Ġcheck": 2015,
      "glasses": 2016,
      "sc": 2017,
      "Ġblo": 2018,
      "Ġstain": 2019,
      "Ġbicycles": 2020,
      "land": 2021,
      "itary": 2022,
      "Ġtour": 2023,
      "Ġstall": 2024,
      "Ġform": 2025,
      "ristmas": 2026,
      "unch": 2027,
      "aded": 2028,
      "Ġrug": 2029,
      "Ġpolar": 2030,
      "out": 2031,
      "iny": 2032,
      "Ġmother": 2033,
      "Ġgold": 2034,
      "Ġsubway": 2035,
      "Ġsmo": 2036,
      "rus": 2037,
      "ĠSk": 2038,
      "Ġvehicles": 2039,
      "Ġwin": 2040,
      "let": 2041,
      "Ġstraw": 2042,
      "rench": 2043,
      "Ġcommercial": 2044,
      "vent": 2045,
      "ique": 2046,
      "Ġcra": 2047,
      "Ġoutdoors": 2048,
      "liner": 2049,
      "ular": 2050,
      "Ġstacked": 2051,
      "reet": 2052,
      "ower": 2053,
      "Ġswings": 2054,
      "Ġcouches": 2055,
      "Ġairplanes": 2056,
      "ward": 2057,
      "urry": 2058,
      "ban": 2059,
      "Ġpool": 2060,
      "Ġreflection": 2061,
      "Ġump": 2062,
      "ates": 2063,
      "Ġcover": 2064,
      "ĠZ": 2065,
      "Ġdesign": 2066,
      "Ġsame": 2067,
      "Ġmultiple": 2068,
      "ĠARE": 2069,
      "AS": 2070,
      "hite": 2071,
      "Ġgames": 2072,
      "Ġlone": 2073,
      "ĠStreet": 2074,
      "ists": 2075,
      "Ġlad": 2076,
      "Ġprofessional": 2077,
      "Ġhighway": 2078,
      "Ġfun": 2079,
      "Ġpedestri": 2080,
      "Ġdrives": 2081,
      "io": 2082,
      "ants": 2083,
      "Ġsunglasses": 2084,
      "Ġdel": 2085,
      "Ġsoup": 2086,
      "ĠDo": 2087,
      "Ġfrien": 2088,
      "Ġbreakfast": 2089,
      "ise": 2090,
      "iler": 2091,
      "ĠPerson": 2092,
      "Ġseated": 2093,
      "Ġumpire": 2094,
      "Ġtrash": 2095,
      "Ġcluttered": 2096,
      "ET": 2097,
      "Ġdocked": 2098,
      "ddle": 2099,
      "Ġhard": 2100,
      "Ġget": 2101,
      "arden": 2102,
      "Ġant": 2103,
      "Ġcontrollers": 2104,
      "Ġsquare": 2105,
      "Ġoutf": 2106,
      "Ġblender": 2107,
      "Ġboarding": 2108,
      "ĠClo": 2109,
      "artment": 2110,
      "ES": 2111,
      "Ġroo": 2112,
      "Ġlawn": 2113,
      "Ġhillside": 2114,
      "Ġfarm": 2115,
      "Ġcooked": 2116,
      "kets": 2117,
      "tom": 2118,
      "Ġgarden": 2119,
      "pping": 2120,
      "Ġcro": 2121,
      "Ġmach": 2122,
      "struction": 2123,
      "OT": 2124,
      "Ġfashion": 2125,
      "Ġear": 2126,
      "ults": 2127,
      "Ġprop": 2128,
      "read": 2129,
      "Ġsignal": 2130,
      "Ġsurfers": 2131,
      "Ġpepper": 2132,
      "made": 2133,
      "Ġsay": 2134,
      "Ġswimming": 2135,
      "ĠAs": 2136,
      "oni": 2137,
      "icing": 2138,
      "Ġeats": 2139,
      "Ġjumps": 2140,
      "ded": 2141,
      "ddler": 2142,
      "ared": 2143,
      "Ġret": 2144,
      "Ġoverl": 2145,
      "ium": 2146,
      "Ġstairs": 2147,
      "Ġmus": 2148,
      "ĠTra": 2149,
      "Ġwooded": 2150,
      "Ġledge": 2151,
      "ken": 2152,
      "Ġmilitary": 2153,
      "Ġgr": 2154,
      "Ġflag": 2155,
      "Ġpillow": 2156,
      "Ġdrawn": 2157,
      "Ġclocks": 2158,
      "Ġrackets": 2159,
      "Ġhotdog": 2160,
      "Ġut": 2161,
      "Ġkitten": 2162,
      "Ġonions": 2163,
      "Ġgather": 2164,
      "Ġwedding": 2165,
      "av": 2166,
      "ng": 2167,
      "Ġfram": 2168,
      "set": 2169,
      "Ġfacing": 2170,
      "Ġhar": 2171,
      "irc": 2172,
      "Ġtoddler": 2173,
      "Ġappro": 2174,
      "Ġarms": 2175,
      "Ġrestroom": 2176,
      "Ġprod": 2177,
      "Ġshelves": 2178,
      "Ġfish": 2179,
      "Ġevent": 2180,
      "ĠGi": 2181,
      "Ġcups": 2182,
      "Ġrocky": 2183,
      "br": 2184,
      "Ġent": 2185,
      "Ġice": 2186,
      "fore": 2187,
      "vert": 2188,
      "Ġdesktop": 2189,
      "DING": 2190,
      "Ġfall": 2191,
      "Ġatte": 2192,
      "Ġsnowboarding": 2193,
      "range": 2194,
      "Ġeyes": 2195,
      "Ġthings": 2196,
      "Ġkick": 2197,
      "Ġsea": 2198,
      "Ġskies": 2199,
      "OW": 2200,
      "Ġacc": 2201,
      "Ġdoes": 2202,
      "co": 2203,
      "ned": 2204,
      "Ġceiling": 2205,
      "Ġgate": 2206,
      "Ġext": 2207,
      "Ġfloors": 2208,
      "Ġglove": 2209,
      "Ġstainless": 2210,
      "Ġter": 2211,
      "ĠChristmas": 2212,
      "IR": 2213,
      "sting": 2214,
      "Ġlanding": 2215,
      "Ġclouds": 2216,
      "ON": 2217,
      "icks": 2218,
      "Ġbefore": 2219,
      "OR": 2220,
      "ou": 2221,
      "Ġham": 2222,
      "Ġeg": 2223,
      "Ġbroken": 2224,
      "Ġtrailer": 2225,
      "ears": 2226,
      "iff": 2227,
      "Ġcompet": 2228,
      "Ġinclud": 2229,
      "cted": 2230,
      "xing": 2231,
      "ring": 2232,
      "eds": 2233,
      "Ġskating": 2234,
      "Ġfree": 2235,
      "Ġhold": 2236,
      "ĠMen": 2237,
      "Ġcard": 2238,
      "Ġcirc": 2239,
      "ĠIn": 2240,
      "Ġdesert": 2241,
      "ĠAsian": 2242,
      "pers": 2243,
      "ĠJ": 2244,
      "Ġdoll": 2245,
      "Ġrace": 2246,
      "Ġassortment": 2247,
      "Ġsteps": 2248,
      "rushes": 2249,
      "Ġsays": 2250,
      "ung": 2251,
      "Ġvegg": 2252,
      "ĠZebra": 2253,
      "uter": 2254,
      "Ġdoors": 2255,
      "Ġparty": 2256,
      "Ġflock": 2257,
      "Ġfight": 2258,
      "Ġcoat": 2259,
      "cture": 2260,
      "ious": 2261,
      "Ġsteep": 2262,
      "Ġtype": 2263,
      "ĠGira": 2264,
      "go": 2265,
      "mer": 2266,
      "Ġmake": 2267,
      "Ġchop": 2268,
      "ations": 2269,
      "Ġurinal": 2270,
      "Ġlunch": 2271,
      "Ġeggs": 2272,
      "Ġcap": 2273,
      "Ġsteam": 2274,
      "Ġelectric": 2275,
      "ia": 2276,
      "ative": 2277,
      "Ġinter": 2278,
      "Ġcost": 2279,
      "Ġmonitors": 2280,
      "Ġarranged": 2281,
      "Ġdisc": 2282,
      "Ġpointing": 2283,
      "ĠMAN": 2284,
      "Ġkneeling": 2285,
      "Ġroof": 2286,
      "adow": 2287,
      "ĠFive": 2288,
      "Ġcloth": 2289,
      "act": 2290,
      "Ġhous": 2291,
      "Ġcostum": 2292,
      "ier": 2293,
      "arrow": 2294,
      "Ġfrench": 2295,
      "aches": 2296,
      "AC": 2297,
      "Ġcakes": 2298,
      "key": 2299,
      "phones": 2300,
      "Ġgraze": 2301,
      "Ġadvert": 2302,
      "nic": 2303,
      "Ġmag": 2304,
      "ork": 2305,
      "az": 2306,
      "uc": 2307,
      "Ġwide": 2308,
      "Ġboarder": 2309,
      "Ġdep": 2310,
      "Ġneat": 2311,
      "ĠVari": 2312,
      "Ġopp": 2313,
      "Ġnet": 2314,
      "Ġtrans": 2315,
      "ns": 2316,
      "Ġconstruction": 2317,
      "Ġmod": 2318,
      "Ġtied": 2319,
      "Ġstra": 2320,
      "ils": 2321,
      "Ġbever": 2322,
      "ape": 2323,
      "Ġmachine": 2324,
      "Ġchef": 2325,
      "Ġsunset": 2326,
      "Ġbottom": 2327,
      "Ġgood": 2328,
      "imb": 2329,
      "Ġclosed": 2330,
      "Ġlett": 2331,
      "Ġmas": 2332,
      "ĠWhite": 2333,
      "Ġrider": 2334,
      "mon": 2335,
      "ĠBas": 2336,
      "Ġoverlooking": 2337,
      "Ġpond": 2338,
      "Ġpract": 2339,
      "Ġcage": 2340,
      "Ġtw": 2341,
      "Ġstret": 2342,
      "Ġadults": 2343,
      "na": 2344,
      "Ġket": 2345,
      "Ġsweat": 2346,
      "Ġcla": 2347,
      "Ġju": 2348,
      "AY": 2349,
      "Ġfig": 2350,
      "Ġsale": 2351,
      "Ġwalkway": 2352,
      "Ġgrill": 2353,
      "Ġbite": 2354,
      "Ġreads": 2355,
      "Ġport": 2356,
      "Ġindo": 2357,
      "Ġstru": 2358,
      "Ġchips": 2359,
      "Ġassorted": 2360,
      "Ġmust": 2361,
      "uching": 2362,
      "IC": 2363,
      "ef": 2364,
      "Ġrela": 2365,
      "Ġforeground": 2366,
      "Ġsides": 2367,
      "ĠPL": 2368,
      "ired": 2369,
      "Ġchain": 2370,
      "Ġoverhead": 2371,
      "Ġpastries": 2372,
      "ially": 2373,
      "Ġtowels": 2374,
      "Ġhimself": 2375,
      "Ġdevice": 2376,
      "Ġpicnic": 2377,
      "Ġurban": 2378,
      "Ġfashioned": 2379,
      "cakes": 2380,
      "Ġnarrow": 2381,
      "Ġwheel": 2382,
      "pet": 2383,
      "Ġmis": 2384,
      "ory": 2385,
      "ĠRed": 2386,
      "ancy": 2387,
      "Ġmessy": 2388,
      "ĠShe": 2389,
      "Ġtoilets": 2390,
      "ĠTHAT": 2391,
      "Ġposition": 2392,
      "Ġpants": 2393,
      "Ġje": 2394,
      "Ġcons": 2395,
      "Ġtransit": 2396,
      "Ġi": 2397,
      "Ġphotos": 2398,
      "Ġpots": 2399,
      "Ġveggies": 2400,
      "Ġmix": 2401,
      "Ġcolors": 2402,
      "ĠBaseball": 2403,
      "ators": 2404,
      "Ġgets": 2405,
      "ican": 2406,
      "Ġappears": 2407,
      "Ġorn": 2408,
      "Ġplain": 2409,
      "Ġshoul": 2410,
      "ĠVarious": 2411,
      "ĠCat": 2412,
      "Ġsuits": 2413,
      "Ġloaded": 2414,
      "Ġfriends": 2415,
      "ĠClose": 2416,
      "rink": 2417,
      "Ġstill": 2418,
      "Ġgl": 2419,
      "Ġnap": 2420,
      "ooter": 2421,
      "Ġtoys": 2422,
      "eller": 2423,
      "Ġfighter": 2424,
      "Ġshade": 2425,
      "Ġsmart": 2426,
      "Ġrefle": 2427,
      "ps": 2428,
      "Ġenter": 2429,
      "Ġclothing": 2430,
      "ĠAir": 2431,
      "urger": 2432,
      "Ġpier": 2433,
      "Ġgiving": 2434,
      "Ġsport": 2435,
      "Ġwrapped": 2436,
      "Ġbeneath": 2437,
      "Ġpasta": 2438,
      "Ġleash": 2439,
      "Ġdrive": 2440,
      "Ġfeatures": 2441,
      "Ġmini": 2442,
      "Ġheld": 2443,
      "Ġkinds": 2444,
      "Ġ2": 2445,
      "Ġpetting": 2446,
      "Ġmug": 2447,
      "Ġcarpet": 2448,
      "Ġcontains": 2449,
      "Ġpepperoni": 2450,
      "iers": 2451,
      "Ġfancy": 2452,
      "Ġscooter": 2453,
      "Ġwinter": 2454,
      "Ġtag": 2455,
      "urf": 2456,
      "Ġblock": 2457,
      "Ġpee": 2458,
      "Ġleather": 2459,
      "Ġsaus": 2460,
      "Ġcarrot": 2461,
      "Ġaction": 2462,
      "Ġhapp": 2463,
      "Ġstructure": 2464,
      "ĠAd": 2465,
      "Ġlies": 2466,
      "Ġsmoke": 2467,
      "OU": 2468,
      "ĠPl": 2469,
      "Ġdoorway": 2470,
      "Ġhole": 2471,
      "Ġpartially": 2472,
      "Ġpropeller": 2473,
      "Ġhouses": 2474,
      "ering": 2475,
      "ib": 2476,
      "me": 2477,
      "Ġbeard": 2478,
      "ught": 2479,
      "Ġleading": 2480,
      "ird": 2481,
      "ives": 2482,
      "Ġties": 2483,
      "laz": 2484,
      "ĠOld": 2485,
      "Ġstun": 2486,
      "Ġcomf": 2487,
      "Ġsod": 2488,
      "Ġrailing": 2489,
      "ock": 2490,
      "Ġtoast": 2491,
      "Ġsill": 2492,
      "Ġship": 2493,
      "ushroom": 2494,
      "Ġfoll": 2495,
      "Ġmakes": 2496,
      "ony": 2497,
      "Ġpastry": 2498,
      "Ġvanity": 2499,
      "Ġpeppers": 2500,
      "Ġvis": 2501,
      "ED": 2502,
      "KING": 2503,
      "itten": 2504,
      "Ġmud": 2505,
      "ighting": 2506,
      "Ġsprink": 2507,
      "Ġbull": 2508,
      "ike": 2509,
      "ucks": 2510,
      "Ġnood": 2511,
      "Ġspot": 2512,
      "Ġoutfit": 2513,
      "Ġsy": 2514,
      "Ġteen": 2515,
      "Ġprepared": 2516,
      "Ġpapers": 2517,
      "idential": 2518,
      "house": 2519,
      "Ġsheet": 2520,
      "Ġracing": 2521,
      "Ġtomato": 2522,
      "Ġpaw": 2523,
      "Ġapartment": 2524,
      "bs": 2525,
      "Ġmushroom": 2526,
      "cket": 2527,
      "be": 2528,
      "ible": 2529,
      "ost": 2530,
      "Ġlid": 2531,
      "Ġrust": 2532,
      "Ġuse": 2533,
      "Ġantique": 2534,
      "yard": 2535,
      "Ġclass": 2536,
      "ray": 2537,
      "Ġused": 2538,
      "Ġofficer": 2539,
      "ield": 2540,
      "Ġsiz": 2541,
      "Ġbaked": 2542,
      "Ġpalm": 2543,
      "Ġfur": 2544,
      "Ġfeed": 2545,
      "Ġlamb": 2546,
      "Ġopened": 2547,
      "..": 2548,
      "cting": 2549,
      "Ġwhat": 2550,
      "Ġcele": 2551,
      "Ġutens": 2552,
      "Ġlettuce": 2553,
      "Ġsupp": 2554,
      "Ġstreets": 2555,
      "very": 2556,
      "Ġupside": 2557,
      "Ġreturn": 2558,
      "Ġincludes": 2559,
      "Ġru": 2560,
      "Ġisland": 2561,
      "ĠĊ": 2562,
      "lage": 2563,
      "Ġcontainers": 2564,
      "gon": 2565,
      "erial": 2566,
      "Ġflight": 2567,
      "Ġsoda": 2568,
      "raft": 2569,
      "Ġbeans": 2570,
      "Ġmound": 2571,
      "olored": 2572,
      "Ġwaits": 2573,
      "Ġsort": 2574,
      "Ġdecorative": 2575,
      "Ġrainy": 2576,
      "Ġshopping": 2577,
      "rop": 2578,
      "cker": 2579,
      "Ġnose": 2580,
      "Ġharbor": 2581,
      "aster": 2582,
      "Ġsliding": 2583,
      "OO": 2584,
      "Ġmed": 2585,
      "ĠPE": 2586,
      "Ġcond": 2587,
      "Ġsheets": 2588,
      "agull": 2589,
      "Ġrests": 2590,
      "Ġmodel": 2591,
      "ulpt": 2592,
      "chup": 2593,
      "Ġbush": 2594,
      "acon": 2595,
      "Ġresidential": 2596,
      "ĠChild": 2597,
      "Ġproduce": 2598,
      "itt": 2599,
      "Ġketchup": 2600,
      "Ġpave": 2601,
      "Ġma": 2602,
      "Ġblond": 2603,
      "Ġalongside": 2604,
      "Ġhats": 2605,
      "Ġgarage": 2606,
      "Ġwriting": 2607,
      "Ġpr": 2608,
      "Ġfive": 2609,
      "Ġripe": 2610,
      "Ġsmal": 2611,
      "Ġcandle": 2612,
      "Ġpavement": 2613,
      "unding": 2614,
      "Ġvest": 2615,
      "Ġstream": 2616,
      "Ġlift": 2617,
      "Ġleaf": 2618,
      "ĠBl": 2619,
      "Ġheads": 2620,
      "Ġuniforms": 2621,
      "Ġtank": 2622,
      "bage": 2623,
      "ige": 2624,
      "ness": 2625,
      "Ġow": 2626,
      "Ġsized": 2627,
      "Ġrural": 2628,
      "Ġsculpt": 2629,
      "Ġlog": 2630,
      "ĠEle": 2631,
      "Ġstrawber": 2632,
      "Ġta": 2633,
      "Ġtiny": 2634,
      "hel": 2635,
      "Ġblurry": 2636,
      "Ġbarn": 2637,
      "Ġdirections": 2638,
      "ĠTO": 2639,
      "Ġjuice": 2640,
      "ivid": 2641,
      "Ġlaid": 2642,
      "Ġpersons": 2643,
      "Ġsnowboards": 2644,
      "Ġremotes": 2645,
      "Ġbrightly": 2646,
      "Ġsmaller": 2647,
      "craft": 2648,
      "Ġcub": 2649,
      "Ġhood": 2650,
      "Ġsep": 2651,
      "Ġgen": 2652,
      "Ġdisplaying": 2653,
      "Ġcommuter": 2654,
      "Ġnoodles": 2655,
      "Ġgas": 2656,
      "Ġegg": 2657,
      "Ġutensils": 2658,
      "Ġbacon": 2659,
      "ĠAT": 2660,
      "Ġtea": 2661,
      "Ġpatio": 2662,
      "Ġflags": 2663,
      "yclist": 2664,
      "Ġfrosting": 2665,
      "aper": 2666,
      "ining": 2667,
      "Ġbare": 2668,
      "Ġwets": 2669,
      "Ġtouching": 2670,
      "ices": 2671,
      "Ġcourse": 2672,
      "Ġclimb": 2673,
      "Ġbranches": 2674,
      "Ġturned": 2675,
      "pl": 2676,
      "Ġsem": 2677,
      "Ġwetsuit": 2678,
      "Ġparade": 2679,
      "Ġaircraft": 2680,
      "Ġself": 2681,
      "Ġrear": 2682,
      "Ġdeep": 2683,
      "Ġplatter": 2684,
      "Ġloading": 2685,
      "Ġlines": 2686,
      "Ġpersonal": 2687,
      "aged": 2688,
      "Ġthrows": 2689,
      "Ġenclosed": 2690,
      "OPLE": 2691,
      "Ġladies": 2692,
      "TING": 2693,
      "Ġcas": 2694,
      "erly": 2695,
      "ctor": 2696,
      "mpting": 2697,
      "Ġpedestrians": 2698,
      "ĠPEOPLE": 2699,
      "Ġpipe": 2700,
      "Ġtent": 2701,
      "Ġdresser": 2702,
      "Ġpurse": 2703,
      "Ġpans": 2704,
      "Ġmeters": 2705,
      "ĠBoy": 2706,
      "case": 2707,
      "Ġpupp": 2708,
      "Ġsausage": 2709,
      "ina": 2710,
      "Ġhall": 2711,
      "Ġgroom": 2712,
      "Ġapproaching": 2713,
      "Ġkicking": 2714,
      "Ġcostume": 2715,
      "IL": 2716,
      "Ġdra": 2717,
      "Ġitself": 2718,
      "ature": 2719,
      "Ġtrays": 2720,
      "ĠHor": 2721,
      "Ġmulti": 2722,
      "Ġshoe": 2723,
      "Ġattempting": 2724,
      "Ġmustard": 2725,
      "bile": 2726,
      "Ġtur": 2727,
      "Ġseagull": 2728,
      "ividual": 2729,
      "ĠCars": 2730,
      "ully": 2731,
      "shirt": 2732,
      "scape": 2733,
      "hill": 2734,
      "Ġgrowing": 2735,
      "Ġwaters": 2736,
      "Ġbuilt": 2737,
      "Ġtail": 2738,
      "Ġpower": 2739,
      "ising": 2740,
      "Ġbeige": 2741,
      "Ġlaugh": 2742,
      "Ġleans": 2743,
      "Ġgoes": 2744,
      "Ġwritten": 2745,
      "Ġjets": 2746,
      "Ġgreens": 2747,
      "Ġcones": 2748,
      "Ġcloseup": 2749,
      "Ġruns": 2750,
      "Ġsailing": 2751,
      "Ġuses": 2752,
      "ALL": 2753,
      "Ġterm": 2754,
      "Ġsweater": 2755,
      "AB": 2756,
      "ster": 2757,
      "ĠBO": 2758,
      "Ġrelaxing": 2759,
      "Ġsemi": 2760,
      "Ġairliner": 2761,
      "Ġgoats": 2762,
      "Ġriders": 2763,
      "IG": 2764,
      "lies": 2765,
      "sted": 2766,
      "Ġleg": 2767,
      "ĠMult": 2768,
      "Ġwar": 2769,
      "Ġmitt": 2770,
      "Ġhangs": 2771,
      "yclists": 2772,
      "Ġmissing": 2773,
      "lled": 2774,
      "Ġcurtains": 2775,
      "eum": 2776,
      "Ġglaz": 2777,
      "Ġdecorations": 2778,
      "Ġlamps": 2779,
      "Ġmilk": 2780,
      "Ġbeverage": 2781,
      "Ġol": 2782,
      "ĠMot": 2783,
      "Ġcrosswalk": 2784,
      "Ġterminal": 2785,
      "ior": 2786,
      "Ġguit": 2787,
      "Ġpickup": 2788,
      "Ġdeli": 2789,
      "Ġindoor": 2790,
      "kin": 2791,
      "Ġducks": 2792,
      "Ġtool": 2793,
      "omot": 2794,
      "ERS": 2795,
      "Ġfalling": 2796,
      "ware": 2797,
      "Ġcal": 2798,
      "Ġliqu": 2799,
      "ĠBat": 2800,
      "Ġpulls": 2801,
      "ĠView": 2802,
      "Ġtransp": 2803,
      "bed": 2804,
      "Ġ1": 2805,
      "ushing": 2806,
      "Ġtelephone": 2807,
      "Ġrolling": 2808,
      "Ġfreez": 2809,
      "Ġmushrooms": 2810,
      "ence": 2811,
      "Ġhappy": 2812,
      "Ġsiting": 2813,
      "Ġrope": 2814,
      "Ġroadway": 2815,
      "Ġcollection": 2816,
      "Ġpasses": 2817,
      "gan": 2818,
      "so": 2819,
      "Ġfake": 2820,
      "Ġsticks": 2821,
      "ĠHe": 2822,
      "Ġformation": 2823,
      "Ġstool": 2824,
      "Ġmicro": 2825,
      "Ġperforms": 2826,
      "Ġindividual": 2827,
      "cing": 2828,
      "Ġonly": 2829,
      "Ġchar": 2830,
      "Ġbutter": 2831,
      "cake": 2832,
      "Ġsnack": 2833,
      "ĠSU": 2834,
      "ctators": 2835,
      "Ġneatly": 2836,
      "omotive": 2837,
      "Ġdim": 2838,
      "Ġwagon": 2839,
      "Ġmost": 2840,
      "Ġfried": 2841,
      "Ġjetliner": 2842,
      "Ġpaved": 2843,
      "ĠZebras": 2844,
      "Ġstunt": 2845,
      "Ġstad": 2846,
      "boat": 2847,
      "Ġbunches": 2848,
      "Ġwheels": 2849,
      "Ġpacked": 2850,
      "Ġmuseum": 2851,
      "Ġornate": 2852,
      "Ġcelebr": 2853,
      "em": 2854,
      "rounding": 2855,
      "Ġsurrounding": 2856,
      "Ġbending": 2857,
      "uffy": 2858,
      "ooked": 2859,
      "ĠGu": 2860,
      "ĠGirl": 2861,
      "Ġposted": 2862,
      "Ġframe": 2863,
      "Ġ3": 2864,
      "Ġpiled": 2865,
      "Ġexp": 2866,
      "Ġstadium": 2867,
      "lish": 2868,
      "Ġab": 2869,
      "Ġsold": 2870,
      "als": 2871,
      "Ġlife": 2872,
      "Ġsoft": 2873,
      "Ġpatter": 2874,
      "Ġeld": 2875,
      "Ġpri": 2876,
      "Ġtops": 2877,
      "redi": 2878,
      "Ġballs": 2879,
      "Ġpres": 2880,
      "Ġpaint": 2881,
      "Ġpracticing": 2882,
      "rance": 2883,
      "Ġwait": 2884,
      "Ġadj": 2885,
      "Ġtax": 2886,
      "Ġgentle": 2887,
      "time": 2888,
      "Ġwithout": 2889,
      "ĠTR": 2890,
      "ots": 2891,
      "Ġguitar": 2892,
      "Ġif": 2893,
      "Ġstud": 2894,
      "allow": 2895,
      "ĠCo": 2896,
      "avy": 2897,
      "Ġsports": 2898,
      "EL": 2899,
      "Ġpet": 2900,
      "cked": 2901,
      "Ġroses": 2902,
      "Ġtalks": 2903,
      "Ġwires": 2904,
      "Ġjeans": 2905,
      "redients": 2906,
      "ton": 2907,
      "Ġstar": 2908,
      "ute": 2909,
      "Ġremo": 2910,
      "Ġspeed": 2911,
      "Ġelectronics": 2912,
      "Ġsupplies": 2913,
      "line": 2914,
      "ital": 2915,
      "Ġbell": 2916,
      "Ġpor": 2917,
      "Ġhow": 2918,
      "ĠTW": 2919,
      "Ġcurled": 2920,
      "Ġlandscape": 2921,
      "ĠGiraffes": 2922,
      "Ġshoulder": 2923,
      "ĠElephant": 2924,
      "fl": 2925,
      "Ġfal": 2926,
      "oral": 2927,
      "ountain": 2928,
      "Ġtoothbrushes": 2929,
      "osite": 2930,
      "Ġlocomotive": 2931,
      "Ġsculpture": 2932,
      "Ġsepar": 2933,
      "Ġelderly": 2934,
      "nel": 2935,
      "ole": 2936,
      "ues": 2937,
      "ĠAmer": 2938,
      "usk": 2939,
      "Ġbucket": 2940,
      "zza": 2941,
      "ĠIt": 2942,
      "Ġcupboard": 2943,
      "Ġtiles": 2944,
      "Ġbookshel": 2945,
      "ARD": 2946,
      "Ġfing": 2947,
      "Ġflown": 2948,
      "Ġhere": 2949,
      "aker": 2950,
      "ĠLooking": 2951,
      "Ġeye": 2952,
      "Ġpaddle": 2953,
      "Ġmagn": 2954,
      "Ġing": 2955,
      "ooks": 2956,
      "Ġhandle": 2957,
      "Ġfaces": 2958,
      "ging": 2959,
      "ishing": 2960,
      "ĠSK": 2961,
      "Ġbaskets": 2962,
      "essor": 2963,
      "Ġpitching": 2964,
      "ĠMotor": 2965,
      "CH": 2966,
      "Ġcop": 2967,
      "Ġfrisb": 2968,
      "Ġbuff": 2969,
      "ption": 2970,
      "Ġpouring": 2971,
      "Ġshirtless": 2972,
      "Ġtravels": 2973,
      "ĠSheep": 2974,
      "ĠTWO": 2975,
      "Ġpow": 2976,
      "Ġmotion": 2977,
      "ĠKit": 2978,
      "Ġhotdogs": 2979,
      "Ġfast": 2980,
      "Ġsniff": 2981,
      "Ġhits": 2982,
      "Ġblankets": 2983,
      "Ġgarbage": 2984,
      "Ġopposite": 2985,
      "Ġaw": 2986,
      "Ġfir": 2987,
      "Ġtoaster": 2988,
      "cts": 2989,
      "Ġurinals": 2990,
      "ID": 2991,
      "dd": 2992,
      "ipped": 2993,
      "og": 2994,
      "Ġtoss": 2995,
      "Ġtong": 2996,
      "Ġrep": 2997,
      "Ġalso": 2998,
      "ĠCom": 2999,
      "Ġspread": 3000,
      "ĠMultiple": 3001,
      "Ġingredients": 3002,
      "Ġglazed": 3003,
      "Ġstuck": 3004,
      "Ġstring": 3005,
      "asing": 3006,
      "Ġfloral": 3007,
      "Ġexh": 3008,
      "ĠAdult": 3009,
      "Ġsprinkles": 3010,
      "ater": 3011,
      "cking": 3012,
      "abit": 3013,
      "ways": 3014,
      "Ġbride": 3015,
      "akers": 3016,
      "ĠLit": 3017,
      "Ġpotted": 3018,
      "Ġpatch": 3019,
      "ĠGuy": 3020,
      "UT": 3021,
      "Ġcycle": 3022,
      "Ġfrosted": 3023,
      "Ġsection": 3024,
      "Ġitem": 3025,
      "Ġpuppy": 3026,
      "Ġfreezer": 3027,
      "Ġtongue": 3028,
      "Ġinst": 3029,
      "rot": 3030,
      "Ġfluffy": 3031,
      "Ġimages": 3032,
      "Ġpedestrian": 3033,
      "kes": 3034,
      "umer": 3035,
      "Ġflip": 3036,
      "Ġofficers": 3037,
      "aming": 3038,
      "Ġdead": 3039,
      "Ġmirrors": 3040,
      "Ġrows": 3041,
      "ACK": 3042,
      "ABLE": 3043,
      "end": 3044,
      "ĠBig": 3045,
      "Ġcoll": 3046,
      "ondon": 3047,
      "Ġfallen": 3048,
      "Ġtrol": 3049,
      "Ġselling": 3050,
      "Ġhabit": 3051,
      "Ġholder": 3052,
      "ĠWe": 3053,
      "ĠChildren": 3054,
      "Ġtast": 3055,
      "Ġda": 3056,
      "Ġneon": 3057,
      "Ġparas": 3058,
      "umin": 3059,
      "Ġhors": 3060,
      "isement": 3061,
      "ees": 3062,
      "ised": 3063,
      "Ġdownhill": 3064,
      "ĠSIT": 3065,
      "Ġarrange": 3066,
      "Ġsim": 3067,
      "Ġpine": 3068,
      "Ġduck": 3069,
      "eboard": 3070,
      "Ġskateboarders": 3071,
      "ĠBen": 3072,
      "Ġpictured": 3073,
      "Ġbunk": 3074,
      "Ġrolls": 3075,
      "Ġpushing": 3076,
      "Ġhum": 3077,
      "ATE": 3078,
      "Ġcompetition": 3079,
      "ĠAmerican": 3080,
      "ĠLittle": 3081,
      "fully": 3082,
      "now": 3083,
      "Ġhabitat": 3084,
      "\".": 3085,
      "Ġicing": 3086,
      "Ġblowing": 3087,
      "Ġobser": 3088,
      "Ġfeaturing": 3089,
      "ĠDog": 3090,
      "Ġadvertisement": 3091,
      "Ġarrangement": 3092,
      "OL": 3093,
      "Ġcer": 3094,
      "Ġleap": 3095,
      "Ġmoves": 3096,
      "bbing": 3097,
      "Ġobjects": 3098,
      "GE": 3099,
      "cycle": 3100,
      "Ġrange": 3101,
      "Ġfin": 3102,
      "orter": 3103,
      "ĠPic": 3104,
      "ĠBE": 3105,
      "Ġhomemade": 3106,
      "ancing": 3107,
      "ĠPLAY": 3108,
      "Ġclimbing": 3109,
      "bow": 3110,
      "Ġfoc": 3111,
      "ĠTo": 3112,
      "usted": 3113,
      "eback": 3114,
      "ount": 3115,
      "Ġgoat": 3116,
      "Ġnewsp": 3117,
      "Ġcheckered": 3118,
      "Ġvisible": 3119,
      "Ġstrawberries": 3120,
      "Ġmicrophone": 3121,
      "py": 3122,
      "Ġshallow": 3123,
      "Ġasleep": 3124,
      "Ġheadphones": 3125,
      "Ġorgan": 3126,
      "Ġcounters": 3127,
      "Ġskirt": 3128,
      "Ġshadow": 3129,
      "Ġcarries": 3130,
      "ĠPi": 3131,
      "Ġmotorb": 3132,
      "Ġdesserts": 3133,
      "Ġgathering": 3134,
      "Ġtransport": 3135,
      "lit": 3136,
      "ĠApp": 3137,
      "icious": 3138,
      "Ġreaches": 3139,
      "Ġcorn": 3140,
      "Ġwhole": 3141,
      "Ġliquid": 3142,
      "Ġhorseback": 3143,
      "ders": 3144,
      "rit": 3145,
      "oned": 3146,
      "ĠSnow": 3147,
      "Ġballoon": 3148,
      "ĠRo": 3149,
      "Ġbasketball": 3150,
      "Ġcondim": 3151,
      "Ġtools": 3152,
      "Ġtab": 3153,
      "Ġke": 3154,
      "Ġbatting": 3155,
      "ured": 3156,
      "Ġgreat": 3157,
      "Ġcovering": 3158,
      "Ġolives": 3159,
      "ĠSITTING": 3160,
      "Ġwing": 3161,
      "Ġshiny": 3162,
      "Ġmarble": 3163,
      "Ġentrance": 3164,
      "Ġfurnis": 3165,
      "Ġlaughing": 3166,
      "ront": 3167,
      "Ġfountain": 3168,
      "Ġmop": 3169,
      "Ġconne": 3170,
      "Ġslopes": 3171,
      "ROU": 3172,
      "Ġname": 3173,
      "Ġexhib": 3174,
      "Ġcatches": 3175,
      "ĠSurf": 3176,
      "Ġbank": 3177,
      "Ġsnowboarders": 3178,
      "Ġcontrols": 3179,
      "ĠTraffic": 3180,
      "Ġang": 3181,
      "Ġlab": 3182,
      "Ġbeef": 3183,
      "Ġcargo": 3184,
      "ĠBus": 3185,
      "Ġstoplight": 3186,
      "Ġopening": 3187,
      "Ġshirts": 3188,
      "ugging": 3189,
      "Ġmark": 3190,
      "ĠSTRE": 3191,
      "ĠPicture": 3192,
      "erries": 3193,
      "Ġlighting": 3194,
      "ids": 3195,
      "ĠGreen": 3196,
      "Ġcupcakes": 3197,
      "decker": 3198,
      "Ġindic": 3199,
      "ĠSTREET": 3200,
      "iled": 3201,
      "Ġgravel": 3202,
      "Ġalley": 3203,
      "ĠLondon": 3204,
      "Ġfeeder": 3205,
      "Ġselfie": 3206,
      "Ġfirst": 3207,
      "Ġtire": 3208,
      "Ġcovers": 3209,
      "Ġwears": 3210,
      "Ġcomple": 3211,
      "Ġcardboard": 3212,
      "ited": 3213,
      "Ġspin": 3214,
      "ĠTHIS": 3215,
      "Ġpotato": 3216,
      "Ġspectators": 3217,
      "wood": 3218,
      "Ġaut": 3219,
      "Ġsug": 3220,
      "Ġsec": 3221,
      "Ġmeadow": 3222,
      "Ġstickers": 3223,
      "Ġmixed": 3224,
      "Ġprin": 3225,
      "Ġcondiments": 3226,
      "men": 3227,
      "Ġdump": 3228,
      "Ġloung": 3229,
      "Ġeven": 3230,
      "stri": 3231,
      "Ġbacks": 3232,
      "ĠCol": 3233,
      "ague": 3234,
      "Ġdisplays": 3235,
      "Ġchest": 3236,
      "Ġchecking": 3237,
      "Ġfan": 3238,
      "Ġtrav": 3239,
      "Ġgrapes": 3240,
      "Ġflooring": 3241,
      "Ġphotograp": 3242,
      "Ġexten": 3243,
      "ĠPizza": 3244,
      "com": 3245,
      "dling": 3246,
      "Ġden": 3247,
      "Ġhills": 3248,
      "Ġsaf": 3249,
      "Ġhaired": 3250,
      "ustom": 3251,
      "Ġplaid": 3252,
      "ĠThese": 3253,
      "Ġturning": 3254,
      "Ġshape": 3255,
      "Ġbookshelf": 3256,
      "Ġbur": 3257,
      "ished": 3258,
      "Ġeit": 3259,
      "anta": 3260,
      "amic": 3261,
      "ĠWH": 3262,
      "Ġworkers": 3263,
      "ĠSkat": 3264,
      "Ġentertain": 3265,
      "ĠBlue": 3266,
      "Ġfocus": 3267,
      "uzz": 3268,
      "Ġfar": 3269,
      "eting": 3270,
      "Ġpige": 3271,
      "Ġcarts": 3272,
      "Ġcomforter": 3273,
      "Ġtravelling": 3274,
      "Ġeither": 3275,
      "URE": 3276,
      "Ġheart": 3277,
      "ĠOn": 3278,
      "Ġseats": 3279,
      "Ġcafe": 3280,
      "Ġlocated": 3281,
      "ables": 3282,
      "Ġchil": 3283,
      "Ġbent": 3284,
      "Ġclay": 3285,
      "Ġfollowing": 3286,
      "vy": 3287,
      "Ġbit": 3288,
      "Ġbul": 3289,
      "Ġmuff": 3290,
      "ĠTen": 3291,
      "boy": 3292,
      "Ġunmade": 3293,
      "Ġproc": 3294,
      "Ġcleaning": 3295,
      "Ġgrilled": 3296,
      "ience": 3297,
      "Ġsix": 3298,
      "Ġfold": 3299,
      "ĠCows": 3300,
      "Ġaccessor": 3301,
      "Ġfigur": 3302,
      "Ġmuddy": 3303,
      "Ġhallway": 3304,
      "Ġexhibit": 3305,
      "mpt": 3306,
      "Ġahead": 3307,
      "Ġlane": 3308,
      "right": 3309,
      "Ġjar": 3310,
      "ĠUn": 3311,
      "Ġfoil": 3312,
      "Ġdelicious": 3313,
      "ĠGiraffe": 3314,
      "Ġdepic": 3315,
      "Ġminiature": 3316,
      "ockey": 3317,
      "ĠHorses": 3318,
      "Ġnewspaper": 3319,
      "Ġsad": 3320,
      "ĠTABLE": 3321,
      "stand": 3322,
      "Ġbooth": 3323,
      "Ġcookies": 3324,
      "Ġenjoy": 3325,
      "ĠSTAN": 3326,
      "Ġsyst": 3327,
      "Ġtrolley": 3328,
      "ĠSkateboard": 3329,
      "Ġaccessories": 3330,
      "'t": 3331,
      "most": 3332,
      "Ġill": 3333,
      "Ġlar": 3334,
      "Ġbou": 3335,
      "ument": 3336,
      "ĠBe": 3337,
      "Ġrainbow": 3338,
      "Ġblonde": 3339,
      "Ġaud": 3340,
      "Ġsus": 3341,
      "Ġcustom": 3342,
      "Ġstage": 3343,
      "Ġnic": 3344,
      "Ġnumer": 3345,
      "Ġthin": 3346,
      "Ġspray": 3347,
      "Ġsleeps": 3348,
      "thy": 3349,
      "Ġhamb": 3350,
      "gress": 3351,
      "Ġseems": 3352,
      "Ġsize": 3353,
      "Ġtabby": 3354,
      "FF": 3355,
      "iet": 3356,
      "look": 3357,
      "zen": 3358,
      "Ġic": 3359,
      "rial": 3360,
      "Ġyou": 3361,
      "Ġcliff": 3362,
      "Ġattire": 3363,
      "Ġcere": 3364,
      "Ġgloves": 3365,
      "Ġinterior": 3366,
      "Ġnapkin": 3367,
      "app": 3368,
      "Ġstares": 3369,
      "ental": 3370,
      "Ġcountertop": 3371,
      "ĠStop": 3372,
      "Ġmostly": 3373,
      "Ġbuffet": 3374,
      "Ġceramic": 3375,
      "ĠRE": 3376,
      "Ġbrushes": 3377,
      "ano": 3378,
      "Ġhugging": 3379,
      "Ġvol": 3380,
      "Ġsharing": 3381,
      "ĠSh": 3382,
      "Ġseries": 3383,
      "Ġrusty": 3384,
      "Ġcalm": 3385,
      "amp": 3386,
      "Ġforward": 3387,
      "Ġlif": 3388,
      "ĠBL": 3389,
      "Ġposed": 3390,
      "Ġgolden": 3391,
      "Ġmask": 3392,
      "Ġiron": 3393,
      "ĠCloseup": 3394,
      "Ġteenag": 3395,
      "Ġmagnets": 3396,
      "asting": 3397,
      "Ġblow": 3398,
      "ĠBU": 3399,
      "ĠFood": 3400,
      "Ġmobile": 3401,
      "Ġchees": 3402,
      "Ġapron": 3403,
      "brary": 3404,
      "town": 3405,
      "Ġaerial": 3406,
      "Ġtun": 3407,
      "Ġpin": 3408,
      "arf": 3409,
      "icolored": 3410,
      "ently": 3411,
      "Ġalmost": 3412,
      "Ġrusted": 3413,
      "Ġcowboy": 3414,
      "Ġtasty": 3415,
      "Ġsystem": 3416,
      "bble": 3417,
      "ere": 3418,
      "work": 3419,
      "Ġodd": 3420,
      "Ġwarm": 3421,
      "here": 3422,
      "Ġrad": 3423,
      "Ġjumb": 3424,
      "ĠBan": 3425,
      "Ġleaving": 3426,
      "Ġhelping": 3427,
      "Ġpicking": 3428,
      "Ġhose": 3429,
      "Ġfunny": 3430,
      "Ġburger": 3431,
      "Ġmore": 3432,
      "Ġrailway": 3433,
      "ITE": 3434,
      "Ġcountryside": 3435,
      "Ġdesigned": 3436,
      "Ġattempt": 3437,
      "Ġdimly": 3438,
      "Ġnicely": 3439,
      "TURE": 3440,
      "attered": 3441,
      "ette": 3442,
      "ried": 3443,
      "Ġbeg": 3444,
      "Ġsomeones": 3445,
      "Ġwatering": 3446,
      "Ġcomb": 3447,
      "Ġjockey": 3448,
      "ĠBrown": 3449,
      "Ġcuts": 3450,
      "Ġarch": 3451,
      "ĠTennis": 3452,
      "AM": 3453,
      "Ġgaz": 3454,
      "Ġcoach": 3455,
      "Ġlibrary": 3456,
      "Ġtries": 3457,
      "Ġpropped": 3458,
      "ustrial": 3459,
      "Ġteams": 3460,
      "Ġdriveway": 3461,
      "Ġsniffing": 3462,
      "ters": 3463,
      "inese": 3464,
      "Ġfishing": 3465,
      "Ġmans": 3466,
      "Ġpara": 3467,
      "Ġshaking": 3468,
      "akery": 3469,
      "Ġprogress": 3470,
      "Ġmatching": 3471,
      "front": 3472,
      "od": 3473,
      "Ġcalf": 3474,
      "isting": 3475,
      "Ġnat": 3476,
      "Ġtractor": 3477,
      "ĠPIC": 3478,
      "Ġconvers": 3479,
      "ĠWOM": 3480,
      "ĠFl": 3481,
      "Ġarrow": 3482,
      "Ġmagaz": 3483,
      "ĠBath": 3484,
      "Ġtaxi": 3485,
      "ĠMotorcycle": 3486,
      "Ġentertainment": 3487,
      "Ġsuspen": 3488,
      "ral": 3489,
      "anna": 3490,
      "Ġfa": 3491,
      "Ġtablet": 3492,
      "Ġparrot": 3493,
      "Ġdriver": 3494,
      "Ġwords": 3495,
      "ĠDO": 3496,
      "Ġbagg": 3497,
      "Ġsteeple": 3498,
      "Ġsugar": 3499,
      "ux": 3500,
      "Ġcases": 3501,
      "allic": 3502,
      "Ġchasing": 3503,
      "ĠIT": 3504,
      "Ġgentleman": 3505,
      "Ġbouquet": 3506,
      "Ġown": 3507,
      "Ġstory": 3508,
      "ility": 3509,
      "Ġshru": 3510,
      "ĠCH": 3511,
      "Ġprepare": 3512,
      "Ġpickle": 3513,
      "Ġcrust": 3514,
      "ĠElephants": 3515,
      "Ġcollar": 3516,
      "ĠPLAYING": 3517,
      "Ġlarger": 3518,
      "ĠBathroom": 3519,
      "ew": 3520,
      "Ġonlook": 3521,
      "Ġneigh": 3522,
      "Ġlemon": 3523,
      "ASS": 3524,
      "ĠTrain": 3525,
      "Ġjumbo": 3526,
      ".\"": 3527,
      "Ġbiting": 3528,
      "Ġcool": 3529,
      "Ġrose": 3530,
      "Ġmetallic": 3531,
      "Ġmulticolored": 3532,
      "Ġbalc": 3533,
      "Ġindustrial": 3534,
      "was": 3535,
      "Ġsets": 3536,
      "Ġcig": 3537,
      "Ġpiano": 3538,
      "Ġherself": 3539,
      "Ġhorns": 3540,
      "quets": 3541,
      "ĠLOT": 3542,
      "Ġmarina": 3543,
      "Ġbikini": 3544,
      "Ġposter": 3545,
      "Ġdevices": 3546,
      "Ġladder": 3547,
      "Ġcircular": 3548,
      "Ġstraight": 3549,
      "Ġtwin": 3550,
      "Ġpaws": 3551,
      "Ġconnected": 3552,
      "ĠSTANDING": 3553,
      "ĠBanan": 3554,
      "hood": 3555,
      "tress": 3556,
      "Ġband": 3557,
      "Ġbakery": 3558,
      "erry": 3559,
      "Ġstir": 3560,
      "rage": 3561,
      "Ġevery": 3562,
      "Ġpancakes": 3563,
      "Ġtrunks": 3564,
      "Ġadvertising": 3565,
      "Ġfinger": 3566,
      "AD": 3567,
      "Ġbra": 3568,
      "owers": 3569,
      "Ġthrown": 3570,
      "Ġshut": 3571,
      "aste": 3572,
      "Ġstrip": 3573,
      "Ġfreshly": 3574,
      "Ġowner": 3575,
      "Ġneighbor": 3576,
      "Ġhiding": 3577,
      "Ġread": 3578,
      "Ġfixt": 3579,
      "Ġbats": 3580,
      "Ġdowntown": 3581,
      "ctive": 3582,
      "ĠPH": 3583,
      "Ġleague": 3584,
      "Ġweather": 3585,
      "ĠCar": 3586,
      "Ġforeign": 3587,
      "Ġobst": 3588,
      "Ġgrand": 3589,
      "Ġaband": 3590,
      "Ġchili": 3591,
      "Ġsle": 3592,
      "Ġbill": 3593,
      "Ġbaking": 3594,
      "Ġpony": 3595,
      "Ġstrol": 3596,
      "Ġthick": 3597,
      "Ġgroc": 3598,
      "Ġunus": 3599,
      "Ġguard": 3600,
      "Ġrails": 3601,
      "ĠVe": 3602,
      "Ġav": 3603,
      "Ġado": 3604,
      "Ġsu": 3605,
      "Ġribb": 3606,
      "ĠSix": 3607,
      "Ġmotorbike": 3608,
      "Ġnatural": 3609,
      "ĠPICTURE": 3610,
      "Ġbaggage": 3611,
      "Ġobstac": 3612,
      "sel": 3613,
      "Ġtight": 3614,
      "Ġwings": 3615,
      "Ġears": 3616,
      "Ġjo": 3617,
      "Ġcupcake": 3618,
      "Ġworks": 3619,
      "Ġcandy": 3620,
      "Ġamongst": 3621,
      "Ġorganized": 3622,
      "Ġhamburger": 3623,
      "ĠPol": 3624,
      "Ġheading": 3625,
      "Ġheavy": 3626,
      "Ġcold": 3627,
      "Ġdaytime": 3628,
      "Ġcastle": 3629,
      "washer": 3630,
      "eled": 3631,
      "Ġson": 3632,
      "Ġpop": 3633,
      "Ġhung": 3634,
      "ord": 3635,
      "use": 3636,
      "Ġshining": 3637,
      "Ġracquets": 3638,
      "Ġserv": 3639,
      "ĠWomen": 3640,
      "Ġdishwasher": 3641,
      "istic": 3642,
      "Ġspinach": 3643,
      "ND": 3644,
      "NT": 3645,
      "Ġcush": 3646,
      "Ġfurry": 3647,
      "ider": 3648,
      "usting": 3649,
      "Ġdispen": 3650,
      "boats": 3651,
      "angu": 3652,
      "aret": 3653,
      "Ġtyping": 3654,
      "Ġmattress": 3655,
      "Ġpickles": 3656,
      "Ġwilder": 3657,
      "Ġframed": 3658,
      "Ġmales": 3659,
      "Ġcupboards": 3660,
      "Ġfolded": 3661,
      "Ġabandoned": 3662,
      "Ġfather": 3663,
      "olf": 3664,
      "ades": 3665,
      "Ġbackyard": 3666,
      "Ġmonkey": 3667,
      "Ġformal": 3668,
      "ĠSkiers": 3669,
      "ĠColor": 3670,
      "ĠWOMAN": 3671,
      "Ġcigaret": 3672,
      "Ġneighborhood": 3673,
      "aks": 3674,
      "med": 3675,
      "Ġdusk": 3676,
      "alley": 3677,
      "Ġtor": 3678,
      "Ġvend": 3679,
      "Ġflood": 3680,
      "Ġlevel": 3681,
      "Ġintere": 3682,
      "Ġscarf": 3683,
      "Ġmove": 3684,
      "Ġcapt": 3685,
      "IDE": 3686,
      "Ġtossing": 3687,
      "Ġillumin": 3688,
      "Ġaudience": 3689,
      "Ġcushion": 3690,
      "tru": 3691,
      "Ġdig": 3692,
      "Ġlangu": 3693,
      "ounge": 3694,
      "Ġbusses": 3695,
      "ĠWI": 3696,
      "Ġbesides": 3697,
      "ĠYellow": 3698,
      "dered": 3699,
      "Ġlambs": 3700,
      "plane": 3701,
      "Ġwilderness": 3702,
      "Ġmass": 3703,
      "Ġcanop": 3704,
      "Ġhelm": 3705,
      "Ġworker": 3706,
      "Ġreflected": 3707,
      "Ġsizes": 3708,
      "Ġporch": 3709,
      "ok": 3710,
      "Ġmac": 3711,
      "hers": 3712,
      "Ġcontents": 3713,
      "Ġcookie": 3714,
      "Ġwashing": 3715,
      "Ġhardwood": 3716,
      "Ġseparate": 3717,
      "Ġonlookers": 3718,
      "Ġbalcony": 3719,
      "gy": 3720,
      "Ġsav": 3721,
      "Ġword": 3722,
      "Ġbars": 3723,
      "Ġresort": 3724,
      "spital": 3725,
      "Ġdrawers": 3726,
      "Ġcomfort": 3727,
      "AIN": 3728,
      "ipping": 3729,
      "outh": 3730,
      "zy": 3731,
      "Ġ4": 3732,
      "Ġsla": 3733,
      "Ġbay": 3734,
      "anger": 3735,
      "Ġnintendo": 3736,
      "Ġjers": 3737,
      "Ġlicking": 3738,
      "Ġstorage": 3739,
      "ggy": 3740,
      "ggles": 3741,
      "Ġstatues": 3742,
      "Ġbelt": 3743,
      "Ġfootball": 3744,
      "Ġquiet": 3745,
      "Ġpeeled": 3746,
      "ĠSkateboarder": 3747,
      "Ġhelmets": 3748,
      "ĠAss": 3749,
      "Ġlim": 3750,
      "Ġupon": 3751,
      "Ġgoggles": 3752,
      "Ġgrazes": 3753,
      "Ġprote": 3754,
      "Ġsteak": 3755,
      "Ġdryer": 3756,
      "Ġsailboat": 3757,
      "Ġstretching": 3758,
      "Ġbearded": 3759,
      "Ġlounging": 3760,
      "Ġvolley": 3761,
      "Ġoper": 3762,
      "Ġfans": 3763,
      "Ġmom": 3764,
      "irds": 3765,
      "Ġdesc": 3766,
      "Ġlighthouse": 3767,
      "Ġcollage": 3768,
      "Ġchopped": 3769,
      "Ġchefs": 3770,
      "Ġowl": 3771,
      "Ġevening": 3772,
      "coming": 3773,
      "Ġjersey": 3774,
      "SE": 3775,
      "Ġbund": 3776,
      "chair": 3777,
      "ĠBAT": 3778,
      "Ġslight": 3779,
      "Ġsunlight": 3780,
      "Ġdecoration": 3781,
      "ĠChinese": 3782,
      "Ġsquat": 3783,
      "Ġclutter": 3784,
      "ival": 3785,
      "Ġtin": 3786,
      "Ġwash": 3787,
      "Ġdot": 3788,
      "Ġgran": 3789,
      "unk": 3790,
      "ided": 3791,
      "ĠSc": 3792,
      "Ġskiis": 3793,
      "vely": 3794,
      "Ġorder": 3795,
      "Ġsilverware": 3796,
      "Ġsticker": 3797,
      "Ġpresent": 3798,
      "Ġmoped": 3799,
      "Ġtunnel": 3800,
      "ĠColorful": 3801,
      "CK": 3802,
      "Ġpump": 3803,
      "rib": 3804,
      "Ġneed": 3805,
      "Ġthan": 3806,
      "ĠSH": 3807,
      "inds": 3808,
      "Ġlear": 3809,
      "ĠBro": 3810,
      "Ġwinds": 3811,
      "Ġchewing": 3812,
      "Ġcloset": 3813,
      "Ġsmoking": 3814,
      "covered": 3815,
      "Ġbeverages": 3816,
      "Ġpeeking": 3817,
      "Ġfauc": 3818,
      "ĠWII": 3819,
      "ĠAssort": 3820,
      "Ġmain": 3821,
      "Ġhi": 3822,
      "Ġlounge": 3823,
      "oney": 3824,
      "ĠPAR": 3825,
      "Ġsaying": 3826,
      "Ġcrosses": 3827,
      "Ġphotographs": 3828,
      "Ġamount": 3829,
      "Ġbalancing": 3830,
      "ĠWHITE": 3831,
      "Ġsuspended": 3832,
      "LO": 3833,
      "colored": 3834,
      "oe": 3835,
      "illa": 3836,
      "Ġrec": 3837,
      "Ġpoint": 3838,
      "ĠPERS": 3839,
      "Ġscattered": 3840,
      "Ġswe": 3841,
      "Ġcellphones": 3842,
      "ĠRO": 3843,
      "Ġfriend": 3844,
      "Ġawa": 3845,
      "gu": 3846,
      "uri": 3847,
      "vated": 3848,
      "Ġtalk": 3849,
      "Ġcher": 3850,
      "Ġfab": 3851,
      "owed": 3852,
      "Ġthumb": 3853,
      "Ġplan": 3854,
      "Ġfixing": 3855,
      "Ġparach": 3856,
      "Ġjung": 3857,
      "Ġheal": 3858,
      "Ġgoal": 3859,
      "Ġlogs": 3860,
      "Ġhospital": 3861,
      "Ġprodu": 3862,
      "ĠInd": 3863,
      "selves": 3864,
      "Ġcigarette": 3865,
      "Ġsavanna": 3866,
      "ĠPERSON": 3867,
      "Ġjungle": 3868,
      "EAR": 3869,
      "tor": 3870,
      "Ġberries": 3871,
      "Ġfed": 3872,
      "Ġge": 3873,
      "ending": 3874,
      "Ġnuts": 3875,
      "Ġreally": 3876,
      "Ġunique": 3877,
      "Ġshops": 3878,
      "af": 3879,
      "ka": 3880,
      "Ġact": 3881,
      "Ġtus": 3882,
      "Ġple": 3883,
      "Ġcru": 3884,
      "rable": 3885,
      "illing": 3886,
      "Ġcourtyard": 3887,
      "Ġthemselves": 3888,
      "Ġboots": 3889,
      "ooters": 3890,
      "Ġcrane": 3891,
      "ĠBOARD": 3892,
      "ĠKitchen": 3893,
      "Ġobstacle": 3894,
      "aw": 3895,
      "ma": 3896,
      "where": 3897,
      "arp": 3898,
      "Ġfat": 3899,
      "Ġgolf": 3900,
      "icop": 3901,
      "Ġstops": 3902,
      "Ġador": 3903,
      "uddle": 3904,
      "ĠBoats": 3905,
      "Ġcircle": 3906,
      "Ġseagulls": 3907,
      "Ġsoftball": 3908,
      "hou": 3909,
      "resh": 3910,
      "Ġmel": 3911,
      "ope": 3912,
      "ĠCOU": 3913,
      "Ġcrossed": 3914,
      "ĠHot": 3915,
      "Ġmaterial": 3916,
      "Ġtoothp": 3917,
      "Ġbikers": 3918,
      "ASE": 3919,
      "Ġsafety": 3920,
      "Ġcanopy": 3921,
      "Ġtusks": 3922,
      "icopter": 3923,
      "my": 3924,
      "mons": 3925,
      "Ġstr": 3926,
      "raying": 3927,
      "Ġmotorcyclist": 3928,
      "ĠCan": 3929,
      "aped": 3930,
      "uffed": 3931,
      "Ġtrim": 3932,
      "Ġhaul": 3933,
      "ĠHOL": 3934,
      "Ġshorel": 3935,
      "Ġturkey": 3936,
      "Ġcomplete": 3937,
      "ls": 3938,
      "ret": 3939,
      "Ġfair": 3940,
      "Ġfighting": 3941,
      "Ġmall": 3942,
      "orting": 3943,
      "ĠBirds": 3944,
      "Ġscooters": 3945,
      "ĠDi": 3946,
      "Ġbarrel": 3947,
      "Ġhelicopter": 3948,
      "Ġslicing": 3949,
      "Ġbalan": 3950,
      "Ġpoints": 3951,
      "Ġterra": 3952,
      "Ġgoods": 3953,
      "Ġpositioned": 3954,
      "Ġgrocery": 3955,
      "Ġadorable": 3956,
      "Ġfabric": 3957,
      "Ġshoreline": 3958,
      "Ġbugg": 3959,
      "Ġlink": 3960,
      "Ġlemons": 3961,
      "Ġtowering": 3962,
      "Ġmusic": 3963,
      "Ġfigure": 3964,
      "gie": 3965,
      "iving": 3966,
      "rat": 3967,
      "ze": 3968,
      "Ġel": 3969,
      "Ġstrange": 3970,
      "Ġskin": 3971,
      "Ġplayed": 3972,
      "Ġware": 3973,
      "Ġring": 3974,
      "ĠGR": 3975,
      "Ġpairs": 3976,
      "Ġmeeting": 3977,
      "Ġpean": 3978,
      "Ġstrapped": 3979,
      "Ġfrisbees": 3980,
      "Ġrepair": 3981,
      "Ġobserving": 3982,
      "Ġfurnished": 3983,
      "ĠDOG": 3984,
      "KE": 3985,
      "Ġbin": 3986,
      "Ġputs": 3987,
      "Ġdust": 3988,
      "rimp": 3989,
      "Ġarena": 3990,
      "Ġgrabbing": 3991,
      "Ġraised": 3992,
      "Ġbedsp": 3993,
      "Ġhangar": 3994,
      "ĠDe": 3995,
      "ĠEng": 3996,
      "Ġfreight": 3997,
      "Ġindoors": 3998,
      "Ġleafy": 3999,
      "ĠBananas": 4000,
      "Ġris": 4001,
      "att": 4002,
      "Ġmin": 4003,
      "Ġsne": 4004,
      "Ġnoteb": 4005,
      "Ġconsisting": 4006,
      "Ġcereal": 4007,
      "Ġmagazine": 4008,
      "LL": 4009,
      "pass": 4010,
      "uro": 4011,
      "ĠAf": 4012,
      "Ġwand": 4013,
      "Ġins": 4014,
      "Ġreg": 4015,
      "ebo": 4016,
      "ĠSM": 4017,
      "Ġbathing": 4018,
      "ĠPh": 4019,
      "Ġlean": 4020,
      "ĠCity": 4021,
      "Ġbuns": 4022,
      "Ġvegetation": 4023,
      "Ġload": 4024,
      "Ġbarri": 4025,
      "AND": 4026,
      "Ġcaught": 4027,
      "Ġfoggy": 4028,
      "IGH": 4029,
      "Ġpigeons": 4030,
      "Ġattempts": 4031,
      "Ġinf": 4032,
      "Ġfest": 4033,
      "oose": 4034,
      "Ġrece": 4035,
      "ĠSanta": 4036,
      "Ġwaterway": 4037,
      "ĠMo": 4038,
      "Ġskyline": 4039,
      "Ġunc": 4040,
      "Ġproject": 4041,
      "Ġscreens": 4042,
      "ROOM": 4043,
      "wards": 4044,
      "Ġbedspread": 4045,
      "hol": 4046,
      "za": 4047,
      "Ġasian": 4048,
      "Ġspac": 4049,
      "Ġcatchers": 4050,
      "Ġquil": 4051,
      "ĠSnowboard": 4052,
      "Ġsecond": 4053,
      "Ġprocess": 4054,
      "Ġdispenser": 4055,
      "Ġslightly": 4056,
      "tie": 4057,
      "Ġori": 4058,
      "Ġvalley": 4059,
      "Ġkitty": 4060,
      "Ġforks": 4061,
      "Ġseas": 4062,
      "Ġconve": 4063,
      "ANT": 4064,
      "Ġpens": 4065,
      "ĠPlate": 4066,
      "Ġwarning": 4067,
      "Ġdelivery": 4068,
      "Ġflooded": 4069,
      "Ġhealthy": 4070,
      "ĠHOLDING": 4071,
      "dled": 4072,
      "gant": 4073,
      "Ġcare": 4074,
      "illage": 4075,
      "Ġcomes": 4076,
      "ĠPar": 4077,
      "Ġwaving": 4078,
      "ĠWAT": 4079,
      "Ġsoap": 4080,
      "ĠGIR": 4081,
      "Ġdirect": 4082,
      "urious": 4083,
      "Ġostri": 4084,
      "ests": 4085,
      "unches": 4086,
      "icle": 4087,
      "Ġreach": 4088,
      "Ġkis": 4089,
      "Ġvillage": 4090,
      "Ġshrimp": 4091,
      "ama": 4092,
      "Ġbasin": 4093,
      "ĠPair": 4094,
      "Ġwear": 4095,
      "Ġwading": 4096,
      "pper": 4097,
      "Ġdec": 4098,
      "Ġlighted": 4099,
      "Ġheaded": 4100,
      "lers": 4101,
      "Ġknit": 4102,
      "Ġpaddling": 4103,
      "Ġgrin": 4104,
      "ĠApple": 4105,
      "Ġribbon": 4106,
      "Ġilluminated": 4107,
      "white": 4108,
      "Ġhad": 4109,
      "Ġhanding": 4110,
      "ĠTeddy": 4111,
      "ĠFR": 4112,
      "Ġmov": 4113,
      "ifl": 4114,
      "Ġdrawing": 4115,
      "Ġreflecting": 4116,
      "ughter": 4117,
      "Ġteenager": 4118,
      "Ġconversation": 4119,
      "Ġservice": 4120,
      "ĠBroccoli": 4121,
      "Ġfaucet": 4122,
      "ĠDifferent": 4123,
      "Ġtasting": 4124,
      "Ġcone": 4125,
      "ĠTe": 4126,
      "Ġtho": 4127,
      "ĠSN": 4128,
      "Ġleads": 4129,
      "ĠFresh": 4130,
      "ĠHIS": 4131,
      "Ġnightstand": 4132,
      "ALKING": 4133,
      "Ġapproaches": 4134,
      "Ġclassroom": 4135,
      "Ġleaping": 4136,
      "Ġballoons": 4137,
      "ined": 4138,
      "ĠAr": 4139,
      "Ġcans": 4140,
      "Ġhal": 4141,
      "Ġath": 4142,
      "Ġcoast": 4143,
      "ulifl": 4144,
      "Ġsideways": 4145,
      "Ġelegant": 4146,
      "Ġarri": 4147,
      "Ġexc": 4148,
      "Ġlayer": 4149,
      "Ġspoons": 4150,
      "ACH": 4151,
      "Ġclassic": 4152,
      "Ġsnacks": 4153,
      "Ġinteresting": 4154,
      "urope": 4155,
      "YING": 4156,
      "Ġident": 4157,
      "ert": 4158,
      "ĠThat": 4159,
      "Ġspraying": 4160,
      "ĠGROU": 4161,
      "Ġbutton": 4162,
      "Ġdesigns": 4163,
      "Ġrustic": 4164,
      "Ġcelebrating": 4165,
      "Ġfixtures": 4166,
      "ĠBATH": 4167,
      "uliflower": 4168,
      "xes": 4169,
      "ities": 4170,
      "Ġcrib": 4171,
      "Ġthese": 4172,
      "alt": 4173,
      "ened": 4174,
      "lay": 4175,
      "Ġsurfs": 4176,
      "Ġdesks": 4177,
      "Ġbrief": 4178,
      "Ġboogie": 4179,
      "Ġpeace": 4180,
      "OTO": 4181,
      "Ġmuffin": 4182,
      "ĠPHOTO": 4183,
      "cast": 4184,
      "ta": 4185,
      "Ġburn": 4186,
      "ĠAirl": 4187,
      "Ġdro": 4188,
      "eter": 4189,
      "Ġplaza": 4190,
      "Ġsha": 4191,
      "Ġtents": 4192,
      "Ġskater": 4193,
      "Ġheard": 4194,
      "Ġalco": 4195,
      "Ġlob": 4196,
      "Ġkeys": 4197,
      "ĠDon": 4198,
      "Ġcanoe": 4199,
      "ĠKids": 4200,
      "Ġgarnis": 4201,
      "ucumb": 4202,
      "Ġlanguage": 4203,
      "Ġconvey": 4204,
      "fts": 4205,
      "ws": 4206,
      "Ġ,": 4207,
      "Ġcucumb": 4208,
      "Ġany": 4209,
      "Ġlis": 4210,
      "uld": 4211,
      "Ġgreenery": 4212,
      "Ġslow": 4213,
      "Ġstopping": 4214,
      "Ġfloat": 4215,
      "Ġcellular": 4216,
      "ific": 4217,
      "Ġdried": 4218,
      "ĠLe": 4219,
      "Ġmarried": 4220,
      "Ġbald": 4221,
      "Ġpattern": 4222,
      "Ġpatterned": 4223,
      "Ġsimple": 4224,
      "Ġkeep": 4225,
      "Ġunusual": 4226,
      "Ġterrain": 4227,
      "Ġ5": 4228,
      "Ġtrough": 4229,
      "Ġbad": 4230,
      "Ġwill": 4231,
      "Ġpug": 4232,
      "Ġfact": 4233,
      "Ġposs": 4234,
      "uble": 4235,
      "rence": 4236,
      "Ġknee": 4237,
      "cloth": 4238,
      "Ġspeakers": 4239,
      "Ġpedestal": 4240,
      "Ġconsole": 4241,
      "Ġgranite": 4242,
      "ĠAfric": 4243,
      "hand": 4244,
      "Ġcobble": 4245,
      "Ġtablecloth": 4246,
      "amond": 4247,
      "Ġgives": 4248,
      "Ġconfe": 4249,
      "Ġcompan": 4250,
      "Ġsplas": 4251,
      "Ġcolle": 4252,
      "ĠLOO": 4253,
      "Ġunlo": 4254,
      "Ġdoubles": 4255,
      "Ġcanal": 4256,
      "Ġsilhou": 4257,
      "Ġturns": 4258,
      "borne": 4259,
      "Ġsailboats": 4260,
      "OOD": 4261,
      "Ġindividuals": 4262,
      "ĠCouple": 4263,
      "Ġtransportation": 4264,
      "ritish": 4265,
      "Ġes": 4266,
      "ably": 4267,
      "Ġbeak": 4268,
      "Ġroaming": 4269,
      "vering": 4270,
      "Ġcostumes": 4271,
      "Ġadjusting": 4272,
      "Ġdaughter": 4273,
      "Ġvendor": 4274,
      "Ġbuggy": 4275,
      "Ġnotebook": 4276,
      "val": 4277,
      "Ġcome": 4278,
      "rome": 4279,
      "Ġhooked": 4280,
      "Ġrol": 4281,
      "Ġrot": 4282,
      "ĠSp": 4283,
      "ĠPro": 4284,
      "ĠMale": 4285,
      "ĠFrench": 4286,
      "Ġtext": 4287,
      "Ġdiamond": 4288,
      "ift": 4289,
      "Ġclus": 4290,
      "ĠĠĠĠ": 4291,
      "Ġmonument": 4292,
      "Ġexam": 4293,
      "Ġdrawer": 4294,
      "Ġcauliflower": 4295,
      "Ġprint": 4296,
      "ĠComm": 4297,
      "ĠSNOW": 4298,
      "dition": 4299,
      "drop": 4300,
      "vi": 4301,
      "Ġpus": 4302,
      "Ġmuch": 4303,
      "Ġthing": 4304,
      "ĠSign": 4305,
      "Ġcloud": 4306,
      "Ġboarders": 4307,
      "Ġsplit": 4308,
      "Ġutility": 4309,
      "Ġinclude": 4310,
      "Ġdepot": 4311,
      "Ġoppon": 4312,
      "IGN": 4313,
      "Ġfigurine": 4314,
      "ĠCanad": 4315,
      "ination": 4316,
      "Ġbor": 4317,
      "Ġwithin": 4318,
      "Ġatten": 4319,
      "Ġweird": 4320,
      "ĠNew": 4321,
      "Ġcleaned": 4322,
      "Ġinstr": 4323,
      "Ġhuman": 4324,
      "Ġshuttle": 4325,
      "Ġmassive": 4326,
      "Ġtoothpaste": 4327,
      "Ġfactory": 4328,
      "ERE": 4329,
      "ky": 4330,
      "Ġbis": 4331,
      "Ġairborne": 4332,
      "ational": 4333,
      "angular": 4334,
      "Ġbabies": 4335,
      "ĠHer": 4336,
      "Ġnumbers": 4337,
      "toon": 4338,
      "ails": 4339,
      "Ġfreeway": 4340,
      "Ġcircus": 4341,
      "Ġpractice": 4342,
      "Ġindicating": 4343,
      "Ġstroller": 4344,
      "VER": 4345,
      "suit": 4346,
      "Ġtape": 4347,
      "Ġtrop": 4348,
      "hedr": 4349,
      "Ġcree": 4350,
      "rots": 4351,
      "Ġfol": 4352,
      "Ġmay": 4353,
      "Ġhip": 4354,
      "Ġlimb": 4355,
      "Ġstorm": 4356,
      "rait": 4357,
      "Ġstance": 4358,
      "sticks": 4359,
      "Ġoverpass": 4360,
      "Ġovercast": 4361,
      "ĠFI": 4362,
      "Ġdrivers": 4363,
      "ĠLots": 4364,
      "Ġprot": 4365,
      "Ġprov": 4366,
      "ĠEurope": 4367,
      "Ġamid": 4368,
      "ooth": 4369,
      "ĠUS": 4370,
      "Ġcompeting": 4371,
      "ĠPlates": 4372,
      "Ġmaj": 4373,
      "ĠSurfer": 4374,
      "Ġcheesy": 4375,
      "Ġkissing": 4376,
      "Ġgrinding": 4377,
      "ĠBATHROOM": 4378,
      "Ġlisten": 4379,
      "hedral": 4380,
      "ILE": 4381,
      "kins": 4382,
      "ode": 4383,
      "ĠAl": 4384,
      "labor": 4385,
      "Ġthird": 4386,
      "Ġcarry": 4387,
      "Ġbackdrop": 4388,
      "Ġmotorcyclists": 4389,
      "Ġtowing": 4390,
      "Ġjackets": 4391,
      "Ġpeel": 4392,
      "Ġornam": 4393,
      "Ġstools": 4394,
      "Ġstudents": 4395,
      "Ġautom": 4396,
      "Ġnumerous": 4397,
      "Ġbegin": 4398,
      "Ġinspe": 4399,
      "AP": 4400,
      "den": 4401,
      "Ġstom": 4402,
      "Ġnow": 4403,
      "ops": 4404,
      "oping": 4405,
      "oored": 4406,
      "Ġeag": 4407,
      "ĠSOM": 4408,
      "Ġcarous": 4409,
      "Ġblur": 4410,
      "Ġjars": 4411,
      "ĠFe": 4412,
      "Ġdeer": 4413,
      "apan": 4414,
      "Ġheadboard": 4415,
      "Ġpiles": 4416,
      "ĠStuffed": 4417,
      "Ġposts": 4418,
      "ATING": 4419,
      "Ġpackage": 4420,
      "Ġstaircase": 4421,
      "Ġwinding": 4422,
      "Ġslee": 4423,
      "Ġquilt": 4424,
      "cy": 4425,
      "no": 4426,
      "view": 4427,
      "ises": 4428,
      "Ġnames": 4429,
      "Ġrect": 4430,
      "Ġroast": 4431,
      "Ġshades": 4432,
      "anda": 4433,
      "Ġupright": 4434,
      "ĠPass": 4435,
      "ĠPark": 4436,
      "ĠBritish": 4437,
      "ĠDel": 4438,
      "Ġdonkey": 4439,
      "Ġbarbed": 4440,
      "Ġwrapper": 4441,
      "Ġmessage": 4442,
      "Ġharness": 4443,
      "ĠSUR": 4444,
      "Ġsquatting": 4445,
      "Ġlearning": 4446,
      "Ġparachute": 4447,
      "Ġhauling": 4448,
      "Ġpeanut": 4449,
      "Ġconference": 4450,
      "Ġtropical": 4451,
      "Ġstomach": 4452,
      "HER": 4453,
      "ixt": 4454,
      "ckers": 4455,
      "ĠTOP": 4456,
      "ico": 4457,
      "Ġchristmas": 4458,
      "Ġhistor": 4459,
      "Ġcompartment": 4460,
      "Ġdisk": 4461,
      "ugged": 4462,
      "Ġfully": 4463,
      "Ġmeas": 4464,
      "Ġcurve": 4465,
      "Ġbookcase": 4466,
      "Ġspeaking": 4467,
      "Ġshapes": 4468,
      "Ġarmy": 4469,
      "Ġknees": 4470,
      "Ġdeserted": 4471,
      "Ġtags": 4472,
      "Ġextended": 4473,
      "ĠBUS": 4474,
      "Ġthumbs": 4475,
      "ailing": 4476,
      "dles": 4477,
      "ora": 4478,
      "Ġtiss": 4479,
      "Ġsup": 4480,
      "Ġwre": 4481,
      "Ġgun": 4482,
      "idy": 4483,
      "ĠSlic": 4484,
      "Ġherding": 4485,
      "Ġpod": 4486,
      "Ġlie": 4487,
      "Ġconf": 4488,
      "ills": 4489,
      "ĠFruit": 4490,
      "Ġdiv": 4491,
      "Ġtrio": 4492,
      "Ġfeeds": 4493,
      "Ġsau": 4494,
      "Ġbarbe": 4495,
      "Ġpolka": 4496,
      "Ġpathway": 4497,
      "Ġsoldier": 4498,
      "Ġsoldiers": 4499,
      "ĠBLACK": 4500,
      "ĠROOM": 4501,
      "ĠPhoto": 4502,
      "ditional": 4503,
      "Ġcarousel": 4504,
      "ipp": 4505,
      "Ġwake": 4506,
      "Ġnur": 4507,
      "Ġnaked": 4508,
      "Ġrecor": 4509,
      "Ġgrab": 4510,
      "ĠWALKING": 4511,
      "ĠFL": 4512,
      "Ġtex": 4513,
      "Ġattract": 4514,
      "Ġsignals": 4515,
      "ĠPolice": 4516,
      "truck": 4517,
      "Ġalcohol": 4518,
      "Ġconveyor": 4519,
      "Ġroller": 4520,
      "Ġfry": 4521,
      "Ġfrying": 4522,
      "Ġstable": 4523,
      "otic": 4524,
      "Ġvac": 4525,
      "Ġplaces": 4526,
      "Ġplains": 4527,
      "Ġfrozen": 4528,
      "Ġgrown": 4529,
      "Ġchan": 4530,
      "Ġboardwalk": 4531,
      "Ġappear": 4532,
      "ĠLa": 4533,
      "INK": 4534,
      "Ġemb": 4535,
      "Ġhelp": 4536,
      "ĠUP": 4537,
      "Ġstepping": 4538,
      "ĠDouble": 4539,
      "Ġportrait": 4540,
      "ĠPLATE": 4541,
      "Ġdepicting": 4542,
      "Ġcustomers": 4543,
      "ĠVeget": 4544,
      "Ġopponent": 4545,
      "ĠPassen": 4546,
      "EE": 4547,
      "PL": 4548,
      "ST": 4549,
      "bag": 4550,
      "des": 4551,
      "Ġfoli": 4552,
      "Ġrecl": 4553,
      "Ġyouth": 4554,
      "Ġcartoon": 4555,
      "Ġraft": 4556,
      "Ġseating": 4557,
      "Ġdest": 4558,
      "Ġslide": 4559,
      "icker": 4560,
      "Ġflav": 4561,
      "Ġnote": 4562,
      "Ġartistic": 4563,
      "Ġcras": 4564,
      "Ġstretches": 4565,
      "ĠComp": 4566,
      "Ġphotographer": 4567,
      "Ġphotographed": 4568,
      "ĠMotorcycles": 4569,
      "Ġostrich": 4570,
      "Ġfoliage": 4571,
      "ca": 4572,
      "emb": 4573,
      "father": 4574,
      "field": 4575,
      "obile": 4576,
      "Ġtux": 4577,
      "Ġsol": 4578,
      "Ġcall": 4579,
      "Ġcast": 4580,
      "ately": 4581,
      "Ġgy": 4582,
      "Ġmane": 4583,
      "Ġsite": 4584,
      "Ġshines": 4585,
      "Ġchrome": 4586,
      "Ġcathedral": 4587,
      "elly": 4588,
      "stone": 4589,
      "ĠCAT": 4590,
      "ĠOrange": 4591,
      "Ġrunner": 4592,
      "ĠLady": 4593,
      "Ġknives": 4594,
      "Ġcrouching": 4595,
      "Ġelectrical": 4596,
      "Ġshoulders": 4597,
      "ĠSKI": 4598,
      "Ġmacar": 4599,
      "Ġproducts": 4600,
      "Ġuncooked": 4601,
      "Ġtexting": 4602,
      "cue": 4603,
      "ula": 4604,
      "ĠTEN": 4605,
      "Ġpies": 4606,
      "ĠSo": 4607,
      "ĠSand": 4608,
      "ĠSIGN": 4609,
      "acks": 4610,
      "ells": 4611,
      "Ġblu": 4612,
      "phalt": 4613,
      "ĠPI": 4614,
      "Ġroadside": 4615,
      "ushi": 4616,
      "ipe": 4617,
      "Ġunf": 4618,
      "Ġworn": 4619,
      "REE": 4620,
      "Ġmeats": 4621,
      "scra": 4622,
      "Ġstretched": 4623,
      "Ġchained": 4624,
      "Ġreturning": 4625,
      "ĠHorse": 4626,
      "ĠSUV": 4627,
      "Ġstarting": 4628,
      "ĠSKATE": 4629,
      "Ġwindsurf": 4630,
      "Ġgeese": 4631,
      "Ġbarrier": 4632,
      "Ġoriental": 4633,
      "port": 4634,
      "Ġsuch": 4635,
      "res": 4636,
      "reme": 4637,
      "Ġstump": 4638,
      "Ġki": 4639,
      "Ġgravy": 4640,
      "Ġblood": 4641,
      "ĠCOM": 4642,
      "Ġdipping": 4643,
      "ĠVery": 4644,
      "Ġcrates": 4645,
      "Ġfarmers": 4646,
      "ĠAdults": 4647,
      "Ġtoasted": 4648,
      "Ġmedium": 4649,
      "Ġstrawberry": 4650,
      "Ġpineapp": 4651,
      "ĠRoad": 4652,
      "Ġadorned": 4653,
      "ĠGRASS": 4654,
      "Ġdirectly": 4655,
      "ĠAfrican": 4656,
      "ĠLOOKING": 4657,
      "uched": 4658,
      "Ġid": 4659,
      "Ġpuddle": 4660,
      "Ġcurious": 4661,
      "Ġones": 4662,
      "Ġdug": 4663,
      "Ġskil": 4664,
      "Ġrob": 4665,
      "cept": 4666,
      "ams": 4667,
      "ĠChe": 4668,
      "Ġasphalt": 4669,
      "Ġmidair": 4670,
      "ĠLiving": 4671,
      "Ġarray": 4672,
      "ude": 4673,
      "gging": 4674,
      "Ġpeering": 4675,
      "Ġwindowsill": 4676,
      "osed": 4677,
      "Ġsails": 4678,
      "Ġbalance": 4679,
      "Ġtourists": 4680,
      "Ġoutfits": 4681,
      "Ġextra": 4682,
      "Ġmashed": 4683,
      "Ġportion": 4684,
      "Ġteenage": 4685,
      "Ġsuite": 4686,
      "Ġbalances": 4687,
      "ĠSnowboarder": 4688,
      "GET": 4689,
      "like": 4690,
      "rup": 4691,
      "Ġtim": 4692,
      "rew": 4693,
      "ern": 4694,
      "Ġanch": 4695,
      "Ġdone": 4696,
      "Ġplacing": 4697,
      "Ġelevated": 4698,
      "Ġskyscra": 4699,
      "ments": 4700,
      "Ġdrying": 4701,
      "Ġemer": 4702,
      "Ġbagel": 4703,
      "Ġrocking": 4704,
      "ONE": 4705,
      "Ġprinter": 4706,
      "ĠPARK": 4707,
      "ĠModern": 4708,
      "Ġcluster": 4709,
      "Ġmacaroni": 4710,
      "NG": 4711,
      "life": 4712,
      "off": 4713,
      "ĊĊ": 4714,
      "Ġsum": 4715,
      "Ġble": 4716,
      "Ġpil": 4717,
      "Ġcoo": 4718,
      "Ġmes": 4719,
      "Ġhut": 4720,
      "Ġtouch": 4721,
      "ains": 4722,
      "Ġdemon": 4723,
      "Ġenvi": 4724,
      "ĠOpen": 4725,
      "Ġthemed": 4726,
      "Ġplanter": 4727,
      "ronment": 4728,
      "Ġbiker": 4729,
      "gged": 4730,
      "Ġbutt": 4731,
      "Ġclosely": 4732,
      "Ġcrate": 4733,
      "ĠSkier": 4734,
      "Ġantel": 4735,
      "Ġgrandfather": 4736,
      "Ġsavannah": 4737,
      "Ġidentical": 4738,
      "ĠAirlines": 4739,
      "ĠSURF": 4740,
      "Ġpodium": 4741,
      "gen": 4742,
      "ti": 4743,
      "Ġbump": 4744,
      "Ġdam": 4745,
      "orn": 4746,
      "iger": 4747,
      "Ġwere": 4748,
      "ĠWood": 4749,
      "ĠFor": 4750,
      "Ġpress": 4751,
      "ĠLong": 4752,
      "Ġstationary": 4753,
      "Ġunit": 4754,
      "Ġstores": 4755,
      "Ġpoliceman": 4756,
      "Ġpartly": 4757,
      "Ġcarriages": 4758,
      "ĠKIT": 4759,
      "Ġglowing": 4760,
      "Ġcubicle": 4761,
      "Ġpowdered": 4762,
      "Ġmarked": 4763,
      "ĠEnglish": 4764,
      "ĠWATER": 4765,
      "ĠGROUP": 4766,
      "ĠDonuts": 4767,
      "Ġenvironment": 4768,
      "CE": 4769,
      "ient": 4770,
      "ively": 4771,
      "Ġmixt": 4772,
      "utes": 4773,
      "Ġselection": 4774,
      "ĠBab": 4775,
      "Ġtowers": 4776,
      "ĠCAR": 4777,
      "aging": 4778,
      "Ġdip": 4779,
      "ĠOut": 4780,
      "ĠOUT": 4781,
      "Ġlogo": 4782,
      "Ġmaroon": 4783,
      "deled": 4784,
      "Ġparent": 4785,
      "Ġshots": 4786,
      "Ġbackpacks": 4787,
      "ĠClock": 4788,
      "ĠJapan": 4789,
      "Ġspotted": 4790,
      "ĠTRAIN": 4791,
      "ĠFlowers": 4792,
      "Ġoperating": 4793,
      "attoo": 4794,
      "Ġsneakers": 4795,
      "Ġfestival": 4796,
      "Ġgym": 4797,
      "AIR": 4798,
      "AFF": 4799,
      "NIS": 4800,
      "fall": 4801,
      "hat": 4802,
      "Ġsushi": 4803,
      "ĠAll": 4804,
      "Ġcooks": 4805,
      "Ġmap": 4806,
      "Ġdet": 4807,
      "Ġelabor": 4808,
      "Ġplush": 4809,
      "Ġstreetlight": 4810,
      "ĠSil": 4811,
      "Ġottom": 4812,
      "ĠPlay": 4813,
      "ĠBASE": 4814,
      "ĠFire": 4815,
      "Ġloaf": 4816,
      "Ġbicyclist": 4817,
      "Ġstripes": 4818,
      "Ġsofas": 4819,
      "OWN": 4820,
      "Ġwheelchair": 4821,
      "Ġtagged": 4822,
      "Ġrubbing": 4823,
      "Ġparasol": 4824,
      "Ġdusty": 4825,
      "Ġspacious": 4826,
      "Ġmixture": 4827,
      "ex": 4828,
      "pris": 4829,
      "ĠAt": 4830,
      "ĠAIR": 4831,
      "Ġpads": 4832,
      "Ġcud": 4833,
      "ath": 4834,
      "Ġmoney": 4835,
      "Ġdual": 4836,
      "Ġtoo": 4837,
      "Ġstart": 4838,
      "ont": 4839,
      "lain": 4840,
      "Ġwhipped": 4841,
      "loy": 4842,
      "Ġsomewhere": 4843,
      "andel": 4844,
      "Ġgroups": 4845,
      "Ġfloats": 4846,
      "Ġtrip": 4847,
      "Ġchecks": 4848,
      "Ġhitter": 4849,
      "Ġsauc": 4850,
      "ĠGra": 4851,
      "Ġkeyboards": 4852,
      "Ġbarren": 4853,
      "ĠELE": 4854,
      "Ġpears": 4855,
      "Ġpenc": 4856,
      "Ġpengu": 4857,
      "Ġcommode": 4858,
      "ĠSmiling": 4859,
      "Ġnotes": 4860,
      "Ġappliance": 4861,
      "Ġquick": 4862,
      "ĠBoys": 4863,
      "Ġlobby": 4864,
      "ĠFemale": 4865,
      "Ġrectangular": 4866,
      "ĠTENNIS": 4867,
      "ĠSandw": 4868,
      "Ġblueb": 4869,
      "IM": 4870,
      "rand": 4871,
      "Ġtee": 4872,
      "Ġwicker": 4873,
      "Ġpig": 4874,
      "alle": 4875,
      "Ġnecks": 4876,
      "Ġneeds": 4877,
      "Ġbean": 4878,
      "Ġyog": 4879,
      "ĠLight": 4880,
      "ĠLuggage": 4881,
      "Ġcamp": 4882,
      "Ġscenic": 4883,
      "Ġkettle": 4884,
      "Ġentering": 4885,
      "Ġstunts": 4886,
      "Ġsyrup": 4887,
      "Ġrubb": 4888,
      "ELL": 4889,
      "ĠBEACH": 4890,
      "Ġkept": 4891,
      "Ġangle": 4892,
      "ĠRED": 4893,
      "Ġleaned": 4894,
      "ĠEuropean": 4895,
      "BO": 4896,
      "ikes": 4897,
      "Ġtry": 4898,
      "Ġpay": 4899,
      "Ġinfl": 4900,
      "Ġmural": 4901,
      "ashing": 4902,
      "rie": 4903,
      "Ġthru": 4904,
      "Ġdozen": 4905,
      "Ġyounger": 4906,
      "ĠPedest": 4907,
      "Ġspat": 4908,
      "ĠLAR": 4909,
      "ĠHand": 4910,
      "ĠHOR": 4911,
      "Ġcurved": 4912,
      "ĠNo": 4913,
      "Ġtube": 4914,
      "ĠEATING": 4915,
      "rong": 4916,
      "Ġcaption": 4917,
      "Ġcrackers": 4918,
      "Ġchopsticks": 4919,
      "Ġinteract": 4920,
      "Ġexcited": 4921,
      "AGE": 4922,
      "UR": 4923,
      "aves": 4924,
      "cuit": 4925,
      "iner": 4926,
      "Ġtattoo": 4927,
      "Ġgoo": 4928,
      "ends": 4929,
      "onal": 4930,
      "Ġeas": 4931,
      "Ġtrave": 4932,
      "Ġintently": 4933,
      "ĠCLO": 4934,
      "Ġdressing": 4935,
      "Ġrowing": 4936,
      "Ġfog": 4937,
      "Ġapart": 4938,
      "Ġletter": 4939,
      "Ġchopping": 4940,
      "Ġspots": 4941,
      "ILD": 4942,
      "Ġfigurines": 4943,
      "Ġradio": 4944,
      "Ġdigital": 4945,
      "Ġinfant": 4946,
      "Ġmovie": 4947,
      "Ġtuxed": 4948,
      "ĠPedestri": 4949,
      "ĠLARGE": 4950,
      "VING": 4951,
      "foot": 4952,
      "Ġox": 4953,
      "Ġpanda": 4954,
      "ishes": 4955,
      "Ġhanger": 4956,
      "Ġgaming": 4957,
      "ripe": 4958,
      "urt": 4959,
      "Ġsnugg": 4960,
      "Ġjelly": 4961,
      "Ġlead": 4962,
      "Ġtowed": 4963,
      "Ġrings": 4964,
      "ccup": 4965,
      "Ġmetro": 4966,
      "Ġlove": 4967,
      "Ġrefrigerators": 4968,
      "Ġserves": 4969,
      "Ġdiner": 4970,
      "Ġspecial": 4971,
      "Ġengines": 4972,
      "ibly": 4973,
      "Ġfingers": 4974,
      "Ġfurnishing": 4975,
      "Ġskinny": 4976,
      "Ġwarehouse": 4977,
      "Ġesc": 4978,
      "ĠBaby": 4979,
      "Ġottoman": 4980,
      "mar": 4981,
      "Ġwo": 4982,
      "Ġton": 4983,
      "Ġrelish": 4984,
      "Ġkay": 4985,
      "amb": 4986,
      "Ġracks": 4987,
      "Ġsignage": 4988,
      "tery": 4989,
      "Ġjunk": 4990,
      "ranges": 4991,
      "Ġbends": 4992,
      "Ġwaff": 4993,
      "ĠBright": 4994,
      "Ġalarm": 4995,
      "Ġmountainous": 4996,
      "venue": 4997,
      "Ġcontra": 4998,
      "Ġclearing": 4999,
      "Ġpitched": 5000,
      "Ġnecktie": 5001,
      "Ġwasher": 5002,
      "Ġletting": 5003,
      "Ġartwork": 5004,
      "Ġtourist": 5005,
      "Ġentree": 5006,
      "ĠInside": 5007,
      "Ġcalico": 5008,
      "Ġremodeled": 5009,
      "Ġcooling": 5010,
      "Ġcherry": 5011,
      "Ġlistening": 5012,
      "bee": 5013,
      "fashion": 5014,
      "Ġinform": 5015,
      "Ġcoke": 5016,
      "Ġships": 5017,
      "umn": 5018,
      "ĠSun": 5019,
      "Ġoutst": 5020,
      "Ġsurpris": 5021,
      "Ġblinds": 5022,
      "Ġdef": 5023,
      "Ġscrat": 5024,
      "Ġbanner": 5025,
      "Ġbunny": 5026,
      "Ġviewing": 5027,
      "Ġridding": 5028,
      "Ġengaged": 5029,
      "Ġsubur": 5030,
      "Ġpaintings": 5031,
      "ĠOlder": 5032,
      "Ġsprinkled": 5033,
      "ĠBatter": 5034,
      "Ġpriv": 5035,
      "ĠApples": 5036,
      "Ġawaiting": 5037,
      "Ġcobblestone": 5038,
      "ĠVegetables": 5039,
      "Ġdugout": 5040,
      "Ġskillet": 5041,
      "PH": 5042,
      "pid": 5043,
      "sa": 5044,
      "Ġtro": 5045,
      "Ġtiger": 5046,
      "Ġhind": 5047,
      "alks": 5048,
      "ically": 5049,
      "celain": 5050,
      "Ġsharp": 5051,
      "zzly": 5052,
      "Ġmotel": 5053,
      "ĠBED": 5054,
      "Ġtreats": 5055,
      "Ġspeeding": 5056,
      "acting": 5057,
      "acent": 5058,
      "Ġnewly": 5059,
      "Ġclaim": 5060,
      "Ġadjacent": 5061,
      "ĠUnited": 5062,
      "Ġshrubs": 5063,
      "Ġelse": 5064,
      "IGHT": 5065,
      "Ġhalves": 5066,
      "Ġmajor": 5067,
      "Ġtissue": 5068,
      "Ġattractive": 5069,
      "Ġspatula": 5070,
      "fashioned": 5071,
      "VE": 5072,
      "ah": 5073,
      "iam": 5074,
      "ked": 5075,
      "Ġsat": 5076,
      "Ġmaker": 5077,
      "Ġmoored": 5078,
      "Ġcoats": 5079,
      "Ġreal": 5080,
      "Ġtraditional": 5081,
      "Ġparts": 5082,
      "Ġhorned": 5083,
      "Ġpocket": 5084,
      "Ġhear": 5085,
      "Ġled": 5086,
      "Ġmenu": 5087,
      "ĠBic": 5088,
      "Ġslides": 5089,
      "Ġshed": 5090,
      "ĠCrow": 5091,
      "aggy": 5092,
      "Ġgour": 5093,
      "Ġviewed": 5094,
      "Ġlocked": 5095,
      "Ġbreaking": 5096,
      "ITY": 5097,
      "Ġstripped": 5098,
      "Ġcrouched": 5099,
      "ĠKites": 5100,
      "Ġbillboard": 5101,
      "Ġhiking": 5102,
      "Ġstrings": 5103,
      "ĠHerd": 5104,
      "Ġeagle": 5105,
      "mel": 5106,
      "park": 5107,
      "Ġtidy": 5108,
      "Ġsled": 5109,
      "inger": 5110,
      "Ġba": 5111,
      "Ġfile": 5112,
      "Ġmail": 5113,
      "icip": 5114,
      "Ġemp": 5115,
      "Ġreno": 5116,
      "Ġfix": 5117,
      "Ġrim": 5118,
      "uments": 5119,
      "Ġupward": 5120,
      "Ġwalled": 5121,
      "Ġgrassland": 5122,
      "Ġwaterfall": 5123,
      "Ġplayground": 5124,
      "ĠBunches": 5125,
      "Ġhandic": 5126,
      "Ġopens": 5127,
      "Ġtreat": 5128,
      "Ġbowling": 5129,
      "Ġdriven": 5130,
      "Ġpreten": 5131,
      "ĠInt": 5132,
      "Ġlodge": 5133,
      "shield": 5134,
      "wear": 5135,
      "Ġwhen": 5136,
      "izing": 5137,
      "ivity": 5138,
      "Ġletters": 5139,
      "Ġcubs": 5140,
      "Ġhoodie": 5141,
      "Ġcycles": 5142,
      "Ġlifting": 5143,
      "Ġarchite": 5144,
      "Ġtort": 5145,
      "Ġsweet": 5146,
      "ĠIndian": 5147,
      "Ġcruise": 5148,
      "Ġsilhouette": 5149,
      "Ġbiscuit": 5150,
      "Ġmeasuring": 5151,
      "Ġoutstret": 5152,
      "ION": 5153,
      "Ġtuck": 5154,
      "Ġoil": 5155,
      "Ġcent": 5156,
      "Ġferry": 5157,
      "Ġnest": 5158,
      "Ġcock": 5159,
      "Ġshaggy": 5160,
      "Ġflipping": 5161,
      "ions": 5162,
      "str": 5163,
      "Ġswung": 5164,
      "Ġfiretruck": 5165,
      "ĠOranges": 5166,
      "Ġbigger": 5167,
      "Ġaged": 5168,
      "Ġforested": 5169,
      "Ġcelery": 5170,
      "Ġexpress": 5171,
      "Ġpowered": 5172,
      "Ġpossibly": 5173,
      "Ġunloading": 5174,
      "ĠLaptop": 5175,
      "ĠComputer": 5176,
      "Ġrubber": 5177,
      "car": 5178,
      "Ġtying": 5179,
      "Ġwool": 5180,
      "Ġpork": 5181,
      "erman": 5182,
      "arn": 5183,
      "Ġsitu": 5184,
      "iced": 5185,
      "Ġrough": 5186,
      "Ġshred": 5187,
      "andal": 5188,
      "ĠSpe": 5189,
      "Ġcomplet": 5190,
      "Ġwindshield": 5191,
      "ĠCl": 5192,
      "ĠCITY": 5193,
      "Ġcutter": 5194,
      "ĠDOWN": 5195,
      "Ġmemb": 5196,
      "nequ": 5197,
      "Ġpillar": 5198,
      "Ġcrest": 5199,
      "Ġtakeoff": 5200,
      "Ġnews": 5201,
      "Ġchickens": 5202,
      "Ġpointed": 5203,
      "ĠSTOP": 5204,
      "Ġlocal": 5205,
      "Ġjeep": 5206,
      "Ġblocking": 5207,
      "Ġsausages": 5208,
      "Ġfollowed": 5209,
      "Ġbulls": 5210,
      "Ġcalled": 5211,
      "ĠHere": 5212,
      "Ġiced": 5213,
      "Ġprotest": 5214,
      "Ġdemonstr": 5215,
      "Ġfurnishings": 5216,
      "Ġoutstretched": 5217,
      "noon": 5218,
      "pan": 5219,
      "zens": 5220,
      "Ġtil": 5221,
      "Ġpane": 5222,
      "Ġdash": 5223,
      "alo": 5224,
      "Ġna": 5225,
      "Ġroman": 5226,
      "Ġram": 5227,
      "ĠBow": 5228,
      "Ġwallp": 5229,
      "dless": 5230,
      "Ġsteer": 5231,
      "Ġsteering": 5232,
      "ĠRI": 5233,
      "ANE": 5234,
      "ĠEm": 5235,
      "Ġuniformed": 5236,
      "ERY": 5237,
      "Ġstacks": 5238,
      "Ġbelong": 5239,
      "Ġwildlife": 5240,
      "Ġretrie": 5241,
      "Ġdiscus": 5242,
      "Ġporcelain": 5243,
      "Ġseparated": 5244,
      "ĠAssortment": 5245,
      "ĠSMALL": 5246,
      "ĠProfessional": 5247,
      "Ġhipster": 5248,
      "Ġautomobile": 5249,
      "Ġkiw": 5250,
      "Ġantelope": 5251,
      "Ġpenguin": 5252,
      "Ġgourmet": 5253,
      "osing": 5254,
      "Ġ6": 5255,
      "ino": 5256,
      "itting": 5257,
      "Ġpir": 5258,
      "Ġcot": 5259,
      "Ġcaut": 5260,
      "Ġfle": 5261,
      "Ġdancing": 5262,
      "alled": 5263,
      "iday": 5264,
      "Ġrode": 5265,
      "Ġplugged": 5266,
      "Ġchandel": 5267,
      "ĠSE": 5268,
      "Ġcarn": 5269,
      "Ġairfield": 5270,
      "imate": 5271,
      "Ġbackwards": 5272,
      "Ġcong": 5273,
      "Ġsocks": 5274,
      "ĠGre": 5275,
      "Ġperches": 5276,
      "Ġhelps": 5277,
      "Ġdirecting": 5278,
      "Ġflatbed": 5279,
      "Ġafternoon": 5280,
      "Ġblocks": 5281,
      "Ġstalls": 5282,
      "Ġoutfield": 5283,
      "Ġfarmer": 5284,
      "Ġcards": 5285,
      "Ġsweatshirt": 5286,
      "flowers": 5287,
      "Ġbullet": 5288,
      "ĠCHILD": 5289,
      "Ġmaterials": 5290,
      "Ġwandering": 5291,
      "Ġblurred": 5292,
      "Ġsuper": 5293,
      "Ġbuttons": 5294,
      "Ġ7": 5295,
      "Ġran": 5296,
      "atable": 5297,
      "Ġlime": 5298,
      "ckets": 5299,
      "Ġnav": 5300,
      "ury": 5301,
      "Ġgrouped": 5302,
      "ugs": 5303,
      "Ġweeds": 5304,
      "Ġhandles": 5305,
      "Ġhandbag": 5306,
      "ĠSeven": 5307,
      "Ġclown": 5308,
      "Ġguests": 5309,
      "Ġadm": 5310,
      "Ġbicyclists": 5311,
      "Ġmean": 5312,
      "Ġdinning": 5313,
      "Ġstem": 5314,
      "ocad": 5315,
      "Ġstorefront": 5316,
      "ĠNE": 5317,
      "ĠVintage": 5318,
      "Ġpanel": 5319,
      "Ġpeeling": 5320,
      "Ġstained": 5321,
      "Ġinteracting": 5322,
      "Ġfigures": 5323,
      "ĠCattle": 5324,
      "Ġhappily": 5325,
      "ĠBOY": 5326,
      "Ġtires": 5327,
      "Ġshrubb": 5328,
      "ĠAssorted": 5329,
      "Ġcompany": 5330,
      "ĠWooden": 5331,
      "Ġquickly": 5332,
      "Ġtuxedo": 5333,
      "UE": 5334,
      "thing": 5335,
      "ually": 5336,
      "inished": 5337,
      "itive": 5338,
      "Ġbla": 5339,
      "Ġcass": 5340,
      "Ġhun": 5341,
      "Ġgall": 5342,
      "ĠTour": 5343,
      "ote": 5344,
      "Ġcould": 5345,
      "Ġvandal": 5346,
      "Ġraising": 5347,
      "Ġskates": 5348,
      "Ġbedding": 5349,
      "Ġteaching": 5350,
      "Ġfema": 5351,
      "Ġdecked": 5352,
      "Ġwheeled": 5353,
      "Ġstripe": 5354,
      "Ġlocation": 5355,
      "Ġcraft": 5356,
      "Ġfalls": 5357,
      "Ġdolls": 5358,
      "Ġ19": 5359,
      "Ġsaddle": 5360,
      "Ġavocad": 5361,
      "Ġplent": 5362,
      "ĠGIRAFF": 5363,
      "ĠSOME": 5364,
      "Ġyogurt": 5365,
      "Ġinflatable": 5366,
      "Ġsuburban": 5367,
      "bird": 5368,
      "onely": 5369,
      "Ġmannequ": 5370,
      "chan": 5371,
      "Ġtram": 5372,
      "Ġrolled": 5373,
      "ummy": 5374,
      "Ġcarved": 5375,
      "Ġraw": 5376,
      "tled": 5377,
      "ĠBALL": 5378,
      "ĠWIN": 5379,
      "ĠWork": 5380,
      "ĠFOOD": 5381,
      "ĠLI": 5382,
      "Ġcorral": 5383,
      "Ġcurrent": 5384,
      "Ġsetup": 5385,
      "Ġlining": 5386,
      "Ġcarrier": 5387,
      "Ġgarlic": 5388,
      "Ġgrizzly": 5389,
      "vention": 5390,
      "Ġcroche": 5391,
      "Ġcrouches": 5392,
      "ĠAirplane": 5393,
      "Ġbarefoot": 5394,
      "Ġhumming": 5395,
      "ountry": 5396,
      "ROUND": 5397,
      "Ġpigeon": 5398,
      "Ġmuffins": 5399,
      "appy": 5400,
      "Ġslab": 5401,
      "Ġdescri": 5402,
      "Ġknitted": 5403,
      "ĠELEPH": 5404,
      "ĠPedestrians": 5405,
      "Ġfemales": 5406,
      "ai": 5407,
      "ha": 5408,
      "Ġ'": 5409,
      "ĠAvenue": 5410,
      "het": 5411,
      "ased": 5412,
      "iring": 5413,
      "ilar": 5414,
      "Ġrele": 5415,
      "Ġshaded": 5416,
      "Ġyarn": 5417,
      "Ġsmelling": 5418,
      "Ġpipes": 5419,
      "ulated": 5420,
      "Ġtraining": 5421,
      "Ġgrasses": 5422,
      "ĠAnimal": 5423,
      "Ġherbs": 5424,
      "Ġpoking": 5425,
      "Ġtoiletries": 5426,
      "Ġwax": 5427,
      "Ġalumin": 5428,
      "ĠMOT": 5429,
      "Ġbricks": 5430,
      "Ġsoaked": 5431,
      "Ġhilly": 5432,
      "anging": 5433,
      "Ġunripe": 5434,
      "Ġtheme": 5435,
      "ĠHER": 5436,
      "Ġattent": 5437,
      "Ġdistant": 5438,
      "Ġpitchers": 5439,
      "Ġequipped": 5440,
      "Ġwrap": 5441,
      "Ġaccom": 5442,
      "Ġprice": 5443,
      "CHEN": 5444,
      "Ġfrisbe": 5445,
      "Ġsimilar": 5446,
      "Ġbites": 5447,
      "Ġcomfortably": 5448,
      "Ġathlet": 5449,
      "Ġpushed": 5450,
      "Ġprovide": 5451,
      "ĠKITCHEN": 5452,
      "Ġelaborate": 5453,
      "ĠBicycle": 5454,
      "Ġsituated": 5455,
      "Ġcompletely": 5456,
      "Ġshrubbery": 5457,
      "Ġvandalized": 5458,
      "ĠELEPHANT": 5459,
      "AKE": 5460,
      "PING": 5461,
      "UM": 5462,
      "UN": 5463,
      "ZZ": 5464,
      "een": 5465,
      "Ġbid": 5466,
      "Ġwi": 5467,
      "Ġpets": 5468,
      "Ġcit": 5469,
      "Ġfut": 5470,
      "esting": 5471,
      "illed": 5472,
      "elle": 5473,
      "ics": 5474,
      "Ġrel": 5475,
      "Ġboun": 5476,
      "Ġwatched": 5477,
      "Ġrabb": 5478,
      "Ġhoriz": 5479,
      "Ġpoised": 5480,
      "Ġheav": 5481,
      "ĠMar": 5482,
      "Ġspar": 5483,
      "Ġappet": 5484,
      "acter": 5485,
      "Ġpottery": 5486,
      "Ġstems": 5487,
      "Ġleave": 5488,
      "Ġpeas": 5489,
      "Ġaccents": 5490,
      "AME": 5491,
      "Ġbriefcase": 5492,
      "Ġfolding": 5493,
      "ĠDelta": 5494,
      "Ġunfinished": 5495,
      "Ġpineapple": 5496,
      "Ġcooler": 5497,
      "gency": 5498,
      "Ġcaution": 5499,
      "Ġaluminum": 5500,
      "Ġheavily": 5501,
      "PLE": 5502,
      "cut": 5503,
      "du": 5504,
      "lete": 5505,
      "Ġhud": 5506,
      "law": 5507,
      "Ġwhit": 5508,
      "Ġvast": 5509,
      "Ġshake": 5510,
      "Ġshare": 5511,
      "Ġsmooth": 5512,
      "Ġchina": 5513,
      "ĠSIDE": 5514,
      "iece": 5515,
      "ĠBird": 5516,
      "ĠCon": 5517,
      "Ġscra": 5518,
      "Ġsporting": 5519,
      "Ġrefe": 5520,
      "achers": 5521,
      "Ġcamping": 5522,
      "Ġstocked": 5523,
      "Ġovens": 5524,
      "ĠNEAR": 5525,
      "Ġmeals": 5526,
      "Ġlayered": 5527,
      "berries": 5528,
      "Ġconsum": 5529,
      "Ġcharacter": 5530,
      "Ġstudio": 5531,
      "Ġlabeled": 5532,
      "Ġvolleyball": 5533,
      "Ġmelted": 5534,
      "Ġinstruments": 5535,
      "ILET": 5536,
      "Ġplenty": 5537,
      "BR": 5538,
      "BALL": 5539,
      "SIDE": 5540,
      "cases": 5541,
      "ose": 5542,
      "yond": 5543,
      "Ġer": 5544,
      "Ġcyclist": 5545,
      "Ġincoming": 5546,
      "ister": 5547,
      "Ġcoles": 5548,
      "Ġbeyond": 5549,
      "Ġreve": 5550,
      "amas": 5551,
      "Ġwallet": 5552,
      "Ġwatermel": 5553,
      "Ġheels": 5554,
      "Ġasc": 5555,
      "Ġswan": 5556,
      "Ġdiving": 5557,
      "Ġunable": 5558,
      "Ġcabbage": 5559,
      "Ġbreast": 5560,
      "Ġcanoes": 5561,
      "ĠYOU": 5562,
      "Ġstrike": 5563,
      "Ġassemb": 5564,
      "Ġfaced": 5565,
      "Ġfeathers": 5566,
      "Ġrelax": 5567,
      "Ġnapkins": 5568,
      "Ġsilly": 5569,
      "Ġvisit": 5570,
      "ĠTOILET": 5571,
      "Ġpowder": 5572,
      "Ġleaps": 5573,
      "uzzy": 5574,
      "Ġsauces": 5575,
      "Ġmaneu": 5576,
      "Ġanchored": 5577,
      "ĠJapanese": 5578,
      "BOARD": 5579,
      "Ġsurprised": 5580,
      "ĠRIDING": 5581,
      "ĠMOTOR": 5582,
      "Ġcoleslaw": 5583,
      "RT": 5584,
      "country": 5585,
      "jamas": 5586,
      "Ġ&": 5587,
      "Ġbamb": 5588,
      "erole": 5589,
      "Ġdorm": 5590,
      "Ġtouches": 5591,
      "ester": 5592,
      "ĠTable": 5593,
      "Ġareas": 5594,
      "Ġholiday": 5595,
      "Ġupper": 5596,
      "Ġnearly": 5597,
      "Ġairline": 5598,
      "Ġcompact": 5599,
      "box": 5600,
      "Ġsocial": 5601,
      "Ġbiplane": 5602,
      "temp": 5603,
      "ĠDark": 5604,
      "Ġcheesecake": 5605,
      "Ġsquir": 5606,
      "Ġsquash": 5607,
      "Ġkneels": 5608,
      "Ġbloom": 5609,
      "Ġframes": 5610,
      "ĠiP": 5611,
      "Ġmixing": 5612,
      "Ġgliding": 5613,
      "ELD": 5614,
      "ĠSurfers": 5615,
      "Ġcomfortable": 5616,
      "Ġcucumbers": 5617,
      "Ġcreek": 5618,
      "Ġbarbecue": 5619,
      "Ġembra": 5620,
      "ĠPIZZ": 5621,
      "ĠSilver": 5622,
      "Ġinteractive": 5623,
      "Ġchandelier": 5624,
      "Ġbamboo": 5625,
      "vil": 5626,
      "ys": 5627,
      "Ġovers": 5628,
      "Ġsanta": 5629,
      "ĠAve": 5630,
      "Ġpage": 5631,
      "rem": 5632,
      "Ġinstruction": 5633,
      "Ġhom": 5634,
      "Ġstare": 5635,
      "Ġnuzz": 5636,
      "Ġeight": 5637,
      "Ġtending": 5638,
      "Ġskiier": 5639,
      "ĠMEN": 5640,
      "ĠCross": 5641,
      "Ġspro": 5642,
      "Ġtech": 5643,
      "Ġsour": 5644,
      "Ġskatepark": 5645,
      "Ġworld": 5646,
      "Ġmarsh": 5647,
      "ĠVE": 5648,
      "Ġexit": 5649,
      "Ġpajamas": 5650,
      "olli": 5651,
      "mbol": 5652,
      "Ġfoam": 5653,
      "Ġportable": 5654,
      "Ġbutterf": 5655,
      "Ġcops": 5656,
      "Ġfinished": 5657,
      "ĠToilet": 5658,
      "Ġbegins": 5659,
      "Ġcombination": 5660,
      "ĠScissors": 5661,
      "Ġbeginning": 5662,
      "Ġemergency": 5663,
      "Ġsummer": 5664,
      "Ġwallpaper": 5665,
      "Ġcasserole": 5666,
      "ĠPIZZA": 5667,
      "ache": 5668,
      "green": 5669,
      "ule": 5670,
      "uting": 5671,
      "vet": 5672,
      "ye": 5673,
      "Ġtelling": 5674,
      "Ġcable": 5675,
      "Ġfit": 5676,
      "aling": 5677,
      "Ġlonely": 5678,
      "Ġstating": 5679,
      "omebo": 5680,
      "lace": 5681,
      "urs": 5682,
      "Ġconvention": 5683,
      "ĠBB": 5684,
      "Ġscale": 5685,
      "Ġmidst": 5686,
      "Ġmountainside": 5687,
      "ĠDR": 5688,
      "ĠHigh": 5689,
      "Ġcolorfully": 5690,
      "Ġamer": 5691,
      "Ġholes": 5692,
      "Ġlanded": 5693,
      "ixed": 5694,
      "ROW": 5695,
      "Ġmakeup": 5696,
      "Ġsymbol": 5697,
      "ILING": 5698,
      "Ġparasailing": 5699,
      "Ġteenagers": 5700,
      "ĠCarrots": 5701,
      "Ġlimit": 5702,
      "Ġpresentation": 5703,
      "ĠParking": 5704,
      "Ġrotten": 5705,
      "ĠSigns": 5706,
      "ĠCanadian": 5707,
      "Ġwindsurfing": 5708,
      "ĠBASEBALL": 5709,
      "ĠHORSE": 5710,
      "Ġemploy": 5711,
      "Ġpirate": 5712,
      "omebody": 5713,
      "gn": 5714,
      "min": 5715,
      "ola": 5716,
      "xy": 5717,
      "inn": 5718,
      "Ġtusk": 5719,
      "Ġtaped": 5720,
      "Ġpon": 5721,
      "erior": 5722,
      "ense": 5723,
      "Ġgradu": 5724,
      "ĠPast": 5725,
      "ĠBY": 5726,
      "ĠMeat": 5727,
      "ĠWashing": 5728,
      "ĠFam": 5729,
      "Ġswans": 5730,
      "Ġspre": 5731,
      "ĠGAME": 5732,
      "Ġcord": 5733,
      "Ġcamper": 5734,
      "ĠHar": 5735,
      "Ġperf": 5736,
      "ĠĠĠ": 5737,
      "Ġramps": 5738,
      "Ġgreeting": 5739,
      "Ġtanger": 5740,
      "Ġmixer": 5741,
      "Ġprinted": 5742,
      "Ġseason": 5743,
      "ĠFIELD": 5744,
      "Ġbleachers": 5745,
      "ĠForce": 5746,
      "Ġsaucer": 5747,
      "Ġprivate": 5748,
      "iamese": 5749,
      "ĠSpectators": 5750,
      "ĠEmpty": 5751,
      "ĠYOUNG": 5752,
      "band": 5753,
      "yle": 5754,
      "Ġtet": 5755,
      "Ġpal": 5756,
      "ĠTru": 5757,
      "Ġever": 5758,
      "Ġrobe": 5759,
      "ĠThey": 5760,
      "ĠSINK": 5761,
      "Ġjam": 5762,
      "Ġbend": 5763,
      "Ġzone": 5764,
      "rella": 5765,
      "Ġcontemp": 5766,
      "ĠBI": 5767,
      "ĠBed": 5768,
      "ĠBear": 5769,
      "ĠBEN": 5770,
      "rispy": 5771,
      "angle": 5772,
      "Ġtiered": 5773,
      "ĠDES": 5774,
      "ĠHalf": 5775,
      "Ġstew": 5776,
      "Ġpolit": 5777,
      "Ġdarkened": 5778,
      "Ġspeaker": 5779,
      "Ġcapped": 5780,
      "Ġsinging": 5781,
      "Ġofficial": 5782,
      "Ġlower": 5783,
      "Ġcrumb": 5784,
      "berry": 5785,
      "Ġmusical": 5786,
      "Ġstretch": 5787,
      "Ġchains": 5788,
      "Ġpropellers": 5789,
      "planes": 5790,
      "Ġcelebration": 5791,
      "ĠBeach": 5792,
      "Ġslowly": 5793,
      "Ġchange": 5794,
      "Ġinformation": 5795,
      "ĠGrey": 5796,
      "Ġnavig": 5797,
      "Ġaccompan": 5798,
      "Ġrabbit": 5799,
      "Ġsparse": 5800,
      "Ġwatermelon": 5801,
      "remely": 5802,
      "YC": 5803,
      "cot": 5804,
      "dress": 5805,
      "fo": 5806,
      "par": 5807,
      "vation": 5808,
      "zing": 5809,
      "Ġult": 5810,
      "Ġoval": 5811,
      "Ġbrow": 5812,
      "Ġbrand": 5813,
      "Ġfuzzy": 5814,
      "Ġhook": 5815,
      "Ġdeb": 5816,
      "Ġrounding": 5817,
      "Ġvert": 5818,
      "Ġthats": 5819,
      "Ġparalle": 5820,
      "andom": 5821,
      "Ġrasp": 5822,
      "aint": 5823,
      "Ġmote": 5824,
      "ĠCoc": 5825,
      "Ġends": 5826,
      "Ġsoaring": 5827,
      "Ġcords": 5828,
      "Ġfriz": 5829,
      "ĠVERY": 5830,
      "arth": 5831,
      "ĠYork": 5832,
      "Ġfeatured": 5833,
      "Ġdeserts": 5834,
      "Ġquite": 5835,
      "Ġextremely": 5836,
      "Ġveggie": 5837,
      "Ġopposing": 5838,
      "Ġconsists": 5839,
      "Ġsmartphone": 5840,
      "Ġcarpeted": 5841,
      "Ġolive": 5842,
      "Ġtaxis": 5843,
      "ĠBuses": 5844,
      "ampag": 5845,
      "Ġsleek": 5846,
      "ĠPARKED": 5847,
      "Ġamerican": 5848,
      "ĠWashington": 5849,
      "ĠBENCH": 5850,
      "LASS": 5851,
      "UL": 5852,
      "eler": 5853,
      "yl": 5854,
      "Ġaim": 5855,
      "Ġtul": 5856,
      "ith": 5857,
      "ĠAnt": 5858,
      "ana": 5859,
      "Ġcaged": 5860,
      "Ġoncoming": 5861,
      "Ġfilling": 5862,
      "Ġgot": 5863,
      "ĠTA": 5864,
      "Ġmantle": 5865,
      "olly": 5866,
      "Ġthrew": 5867,
      "Ġrese": 5868,
      "Ġbatters": 5869,
      "ĠSL": 5870,
      "ĠPink": 5871,
      "Ġsewing": 5872,
      "Ġskiiers": 5873,
      "ĠMac": 5874,
      "Ġrh": 5875,
      "ĠFri": 5876,
      "Ġflowered": 5877,
      "Ġbron": 5878,
      "Ġmem": 5879,
      "Ġpolo": 5880,
      "ĠEx": 5881,
      "Ġpolicemen": 5882,
      "Ġnothing": 5883,
      "Ġtwig": 5884,
      "Ġsculptures": 5885,
      "Ġinstalled": 5886,
      "ĠBEAR": 5887,
      "Ġmotorbikes": 5888,
      "Ġextends": 5889,
      "Ġprotective": 5890,
      "Ġthough": 5891,
      "Ġvacant": 5892,
      "Ġtimes": 5893,
      "Ġblueberries": 5894,
      "Ġbidet": 5895,
      "ĠBBQ": 5896,
      "IE": 5897,
      "SS": 5898,
      "TLE": 5899,
      "book": 5900,
      "ners": 5901,
      "wise": 5902,
      "Ġcyclists": 5903,
      "Ġges": 5904,
      "Ġstones": 5905,
      "ĠTw": 5906,
      "ĠTow": 5907,
      "Ġskull": 5908,
      "Ġyet": 5909,
      "Ġtrainer": 5910,
      "Ġbasil": 5911,
      "inder": 5912,
      "Ġforce": 5913,
      "ĠMil": 5914,
      "Ġsco": 5915,
      "Ġunderwear": 5916,
      "Ġspices": 5917,
      "eaten": 5918,
      "Ġimp": 5919,
      "Ġbroc": 5920,
      "ĠTHREE": 5921,
      "Ġclub": 5922,
      "ĠDI": 5923,
      "ĠDIS": 5924,
      "ĠHome": 5925,
      "Ġperch": 5926,
      "Ġmachines": 5927,
      "ouf": 5928,
      "Ġchoppy": 5929,
      "Ġdepartment": 5930,
      "Ġglides": 5931,
      "Ġexposed": 5932,
      "Ġfinish": 5933,
      "ĠDecker": 5934,
      "Ġcrashing": 5935,
      "Ġkiwi": 5936,
      "Ġcarnival": 5937,
      "Ġhuddled": 5938,
      "Ġperfect": 5939,
      "Ġparallel": 5940,
      "ampagne": 5941,
      "aff": 5942,
      "dges": 5943,
      "yed": 5944,
      "Ġsan": 5945,
      "ingle": 5946,
      "itch": 5947,
      "Ġbrus": 5948,
      "Ġpant": 5949,
      "atic": 5950,
      "Ġfiled": 5951,
      "Ġnon": 5952,
      "urple": 5953,
      "usts": 5954,
      "Ġcoin": 5955,
      "adows": 5956,
      "Ġkiss": 5957,
      "undred": 5958,
      "Ġgrow": 5959,
      "Ġfields": 5960,
      "Ġbushel": 5961,
      "Ġblows": 5962,
      "airs": 5963,
      "Ġbackhand": 5964,
      "ĠPO": 5965,
      "Ġseven": 5966,
      "ĠBR": 5967,
      "ĠBri": 5968,
      "ĠMex": 5969,
      "ĠWay": 5970,
      "ĠWEAR": 5971,
      "aghet": 5972,
      "gerator": 5973,
      "vest": 5974,
      "Ġcamouf": 5975,
      "Ġprepar": 5976,
      "Ġserious": 5977,
      "shaped": 5978,
      "Ġmarking": 5979,
      "Ġcloudless": 5980,
      "graph": 5981,
      "Ġpaus": 5982,
      "inesses": 5983,
      "ĠPlane": 5984,
      "ĠTOGET": 5985,
      "ĠGirls": 5986,
      "Ġicy": 5987,
      "Ġlifts": 5988,
      "ĠBLUE": 5989,
      "Ġwarming": 5990,
      "Ġgazing": 5991,
      "Ġcherries": 5992,
      "eteria": 5993,
      "ĠPassengers": 5994,
      "Ġdamaged": 5995,
      "ĠAnimals": 5996,
      "Ġreferee": 5997,
      "ĠDESK": 5998,
      "Ġgesture": 5999,
      "ĠTOGETHER": 6000,
      "CT": 6001,
      "HING": 6002,
      "feteria": 6003,
      "iing": 6004,
      "ney": 6005,
      "ĠQ": 6006,
      "Ġtarp": 6007,
      "Ġoct": 6008,
      "Ġsanding": 6009,
      "Ġwig": 6010,
      "Ġcraw": 6011,
      "Ġlux": 6012,
      "lapid": 6013,
      "verted": 6014,
      "Ġboul": 6015,
      "Ġbusinesses": 6016,
      "sters": 6017,
      "Ġgive": 6018,
      "ĠPurple": 6019,
      "Ġroads": 6020,
      "ĠBIR": 6021,
      "ĠMother": 6022,
      "Ġrandom": 6023,
      "ĠFOR": 6024,
      "ĠCla": 6025,
      "Ġspaghet": 6026,
      "Ġtemp": 6027,
      "ĠOb": 6028,
      "Ġkiteboarding": 6029,
      "Ġhydrants": 6030,
      "Ġjumped": 6031,
      "Ġcameras": 6032,
      "Ġorch": 6033,
      "Ġshelving": 6034,
      "ĠStar": 6035,
      "Ġpeers": 6036,
      "Ġcafeteria": 6037,
      "Ġcabinetry": 6038,
      "Ġcroiss": 6039,
      "Ġrelaxes": 6040,
      "ĠBlurry": 6041,
      "Ġliquor": 6042,
      "Ġsafari": 6043,
      "ĠVehic": 6044,
      "Ġbundle": 6045,
      "Ġrise": 6046,
      "Ġprojector": 6047,
      "Ġshaving": 6048,
      "Ġtortilla": 6049,
      "Ġtucked": 6050,
      "Ġbelongings": 6051,
      "Ġhummingbird": 6052,
      "Ġdebris": 6053,
      "lapidated": 6054,
      "EBR": 6055,
      "XT": 6056,
      "can": 6057,
      "cul": 6058,
      "lane": 6059,
      "lines": 6060,
      "Ġtick": 6061,
      "Ġbins": 6062,
      "ĠAP": 6063,
      "Ġwip": 6064,
      "Ġped": 6065,
      "Ġhur": 6066,
      "Ġstrong": 6067,
      "omb": 6068,
      "opped": 6069,
      "Ġropes": 6070,
      "Ġkicks": 6071,
      "Ġshoo": 6072,
      "Ġgrape": 6073,
      "ums": 6074,
      "Ġbuss": 6075,
      "Ġlens": 6076,
      "ĠBAN": 6077,
      "ĠMon": 6078,
      "ĠFRO": 6079,
      "lymp": 6080,
      "ĠIs": 6081,
      "Ġappe": 6082,
      "ĠLAP": 6083,
      "atory": 6084,
      "Ġknock": 6085,
      "Ġstock": 6086,
      "REEN": 6087,
      "ĠHAND": 6088,
      "Ġdecorating": 6089,
      "Ġnighttime": 6090,
      "ĠRe": 6091,
      "Ġstriking": 6092,
      "Ġclearly": 6093,
      "Ġmilking": 6094,
      "ĠZEBR": 6095,
      "ĠAirways": 6096,
      "Ġ20": 6097,
      "ĠElect": 6098,
      "Ġdragon": 6099,
      "Ġbuffalo": 6100,
      "Ġmopeds": 6101,
      "ĠLOTS": 6102,
      "Ġstirring": 6103,
      "Ġathlete": 6104,
      "Ġarriving": 6105,
      "Ġburning": 6106,
      "Ġgarnish": 6107,
      "Ġgarnished": 6108,
      "Ġcucumber": 6109,
      "ificial": 6110,
      "Ġhistoric": 6111,
      "ĠSlices": 6112,
      "ippers": 6113,
      "Ġtravelers": 6114,
      "ĠCLOCK": 6115,
      "ccupied": 6116,
      "Ġscratching": 6117,
      "Ġmembers": 6118,
      "Ġdashboard": 6119,
      "YCLE": 6120,
      "ĠCoca": 6121,
      "ĠAntique": 6122,
      "Ġspaghetti": 6123,
      "back": 6124,
      "ien": 6125,
      "nd": 6126,
      "pipe": 6127,
      "Ġaff": 6128,
      "Ġpel": 6129,
      "Ġcages": 6130,
      "Ġcram": 6131,
      "Ġfill": 6132,
      "Ġmiss": 6133,
      "Ġgad": 6134,
      "alog": 6135,
      "orary": 6136,
      "unching": 6137,
      "Ġnes": 6138,
      "Ġvi": 6139,
      "Ġchampagne": 6140,
      "Ġflan": 6141,
      "ĠSide": 6142,
      "ĠSte": 6143,
      "Ġgrouping": 6144,
      "Ġpours": 6145,
      "Ġbacked": 6146,
      "Ġwindy": 6147,
      "Ġaspar": 6148,
      "Ġscru": 6149,
      "Ġtrek": 6150,
      "ĠOP": 6151,
      "ified": 6152,
      "ĠDis": 6153,
      "Ġmeet": 6154,
      "Ġpatrol": 6155,
      "ĠRows": 6156,
      "Ġcemet": 6157,
      "rons": 6158,
      "ĠStat": 6159,
      "Ġposters": 6160,
      "Ġspeeds": 6161,
      "Ġstyled": 6162,
      "lined": 6163,
      "Ġearly": 6164,
      "Ġmustache": 6165,
      "ĠAirplanes": 6166,
      "Ġfollows": 6167,
      "Ġsupport": 6168,
      "Ġmedic": 6169,
      "Ġcondition": 6170,
      "Ġturqu": 6171,
      "Ġmarker": 6172,
      "Ġindicates": 6173,
      "Ġdepicts": 6174,
      "Ġcountertops": 6175,
      "Ġregular": 6176,
      "ĠGIRL": 6177,
      "Ġlettering": 6178,
      "Ġescal": 6179,
      "Ġavocado": 6180,
      "Ġbutterfly": 6181,
      "Ġfrizbee": 6182,
      "Ġtulips": 6183,
      "ĠWEARING": 6184,
      "50": 6185,
      "bread": 6186,
      "dant": 6187,
      "hus": 6188,
      "iator": 6189,
      "oise": 6190,
      "sion": 6191,
      "Ġtug": 6192,
      "Ġsells": 6193,
      "Ġcran": 6194,
      "Ġcrown": 6195,
      "Ġmor": 6196,
      "Ġlion": 6197,
      "oms": 6198,
      "onder": 6199,
      "eties": 6200,
      "ilies": 6201,
      "Ġcozy": 6202,
      "Ġskills": 6203,
      "Ġtrailing": 6204,
      "Ġstrewn": 6205,
      "Ġgrabs": 6206,
      "Ġchalk": 6207,
      "ctors": 6208,
      "ĠBre": 6209,
      "ĠWA": 6210,
      "ĠWater": 6211,
      "agus": 6212,
      "Ġsword": 6213,
      "Ġspire": 6214,
      "Ġflowing": 6215,
      "Ġarched": 6216,
      "Ġhaw": 6217,
      "Ġknow": 6218,
      "Ġvarieties": 6219,
      "Ġmechan": 6220,
      "Ġmeatball": 6221,
      "Ġlinens": 6222,
      "tock": 6223,
      "Ġmicrowaves": 6224,
      "Ġcrew": 6225,
      "Ġcrafts": 6226,
      "ONG": 6227,
      "Ġcompete": 6228,
      "Ġdraped": 6229,
      "Ġbelly": 6230,
      "ĠItal": 6231,
      "Ġceremon": 6232,
      "Ġtaxiing": 6233,
      "ĠSKIING": 6234,
      "ĠCOMP": 6235,
      "Ġmesh": 6236,
      "Ġbumper": 6237,
      "ĠGraffiti": 6238,
      "ĠSandwich": 6239,
      "estern": 6240,
      "Ġgadget": 6241,
      "Ġturquoise": 6242,
      "con": 6243,
      "oke": 6244,
      "tes": 6245,
      "what": 6246,
      "Ġaler": 6247,
      "Ġsight": 6248,
      "itor": 6249,
      "Ġblaz": 6250,
      "Ġmous": 6251,
      "Ġhour": 6252,
      "Ġhundred": 6253,
      "ĠTall": 6254,
      "rid": 6255,
      "urity": 6256,
      "ict": 6257,
      "Ġbeat": 6258,
      "Ġplow": 6259,
      "amed": 6260,
      "Ġrams": 6261,
      "Ġblind": 6262,
      "stal": 6263,
      "station": 6264,
      "Ġhorn": 6265,
      "Ġmotorized": 6266,
      "Ġdilapidated": 6267,
      "Ġmirrored": 6268,
      "door": 6269,
      "ĠLone": 6270,
      "ĠGerman": 6271,
      "Ġridden": 6272,
      "Ġdresses": 6273,
      "Ġpaste": 6274,
      "Ġbottled": 6275,
      "Ġcurvy": 6276,
      "Ġpaperwork": 6277,
      "Ġamb": 6278,
      "Ġfound": 6279,
      "Ġartificial": 6280,
      "Ġdoesn": 6281,
      "Ġgentlemen": 6282,
      "ĠTRACK": 6283,
      "Ġbookshelves": 6284,
      "Ġsniffs": 6285,
      "Ġburnt": 6286,
      "Ġprocessor": 6287,
      "Ġoddly": 6288,
      "Ġlimes": 6289,
      "Ġbundled": 6290,
      "ĠCOURT": 6291,
      "Ġsplashing": 6292,
      "Ġcollege": 6293,
      "ĠCanada": 6294,
      "Ġborder": 6295,
      "ĠSliced": 6296,
      "Ġpilot": 6297,
      "Ġshredded": 6298,
      "Ġrodeo": 6299,
      "Ġsmoothie": 6300,
      "Ġhomes": 6301,
      "Ġsprouts": 6302,
      "Ġbrocolli": 6303,
      "Ġpreparation": 6304,
      "ĠFRONT": 6305,
      "Ġnestled": 6306,
      "Ġasparagus": 6307,
      "Ġescalator": 6308,
      "Ġmorning": 6309,
      "iver": 6310,
      "piece": 6311,
      "tage": 6312,
      "Ġest": 6313,
      "Ġque": 6314,
      "Ġaqu": 6315,
      "Ġtac": 6316,
      "Ġinstru": 6317,
      "Ġmilling": 6318,
      "Ġhoney": 6319,
      "Ġdom": 6320,
      "ala": 6321,
      "ashes": 6322,
      "Ġnavy": 6323,
      "upe": 6324,
      "Ġrod": 6325,
      "Ġtabletop": 6326,
      "Ġshady": 6327,
      "Ġsomewhat": 6328,
      "Ġpicks": 6329,
      "Ġairlines": 6330,
      "Ġbuying": 6331,
      "Ġotherwise": 6332,
      "Ġlip": 6333,
      "Ġsexy": 6334,
      "Ġlegged": 6335,
      "rely": 6336,
      "ĠMOU": 6337,
      "Ġsandals": 6338,
      "Ġmoss": 6339,
      "ĠOR": 6340,
      "ĠOVER": 6341,
      "ĠIM": 6342,
      "Ġpassed": 6343,
      "ĠGLASS": 6344,
      "ĠDes": 6345,
      "Ġtelevisions": 6346,
      "Ġmarching": 6347,
      "Ġliner": 6348,
      "Ġshelter": 6349,
      "Ġmouths": 6350,
      "Ġpicked": 6351,
      "Ġexiting": 6352,
      "Ġsquares": 6353,
      "Ġsmiley": 6354,
      "Ġgates": 6355,
      "Ġwashed": 6356,
      "lights": 6357,
      "Ġcracked": 6358,
      "Ġoverlooks": 6359,
      "ngth": 6360,
      "Ġentry": 6361,
      "ĠJUM": 6362,
      "Ġmugs": 6363,
      "Ġmedical": 6364,
      "Ġremoved": 6365,
      "Ġdais": 6366,
      "Ġlounges": 6367,
      "Ġnumerals": 6368,
      "Ġlifted": 6369,
      "Ġeverything": 6370,
      "Ġslaw": 6371,
      "Ġdotted": 6372,
      "Ġsplash": 6373,
      "ĠCommuter": 6374,
      "ĠAltered": 6375,
      "Ġnapping": 6376,
      "ĠTourists": 6377,
      "Ġappetiz": 6378,
      "ĠFamily": 6379,
      "Ġaccompanied": 6380,
      "ĠMilitary": 6381,
      "ĠMexican": 6382,
      "ĠObama": 6383,
      "MB": 6384,
      "hich": 6385,
      "hold": 6386,
      "pa": 6387,
      "pit": 6388,
      "turn": 6389,
      "Ġip": 6390,
      "Ġwro": 6391,
      "Ġwines": 6392,
      "Ġcane": 6393,
      "Ġcry": 6394,
      "erc": 6395,
      "Ġfer": 6396,
      "Ġfaded": 6397,
      "Ġmy": 6398,
      "Ġmer": 6399,
      "Ġhid": 6400,
      "Ġgown": 6401,
      "othered": 6402,
      "Ġwhis": 6403,
      "Ġchat": 6404,
      "ĠBar": 6405,
      "ĠCal": 6406,
      "Ġlittered": 6407,
      "ĠOlymp": 6408,
      "Ġdaylight": 6409,
      "Ġknick": 6410,
      "Ġwalked": 6411,
      "Ġpurch": 6412,
      "Ġnoses": 6413,
      "ĠONE": 6414,
      "Ġhovering": 6415,
      "Ġparticip": 6416,
      "Ġpackages": 6417,
      "bbles": 6418,
      "Ġholders": 6419,
      "Ġsteamed": 6420,
      "acters": 6421,
      "ICE": 6422,
      "Ġwetsuits": 6423,
      "Ġcalcul": 6424,
      "Ġremoving": 6425,
      "Ġneedle": 6426,
      "Ġinspecting": 6427,
      "Ġhistorical": 6428,
      "ĠFLYING": 6429,
      "Ġflavored": 6430,
      "Ġpencils": 6431,
      "Ġwaffles": 6432,
      "Ġexpression": 6433,
      "ĠNEXT": 6434,
      "Ġembracing": 6435,
      "Ġtethered": 6436,
      "Ġcamouflage": 6437,
      "ĠOPEN": 6438,
      "LD": 6439,
      "UCK": 6440,
      "fruit": 6441,
      "mat": 6442,
      "pher": 6443,
      "tra": 6444,
      "Ġsid": 6445,
      "Ġpale": 6446,
      "anish": 6447,
      "Ġinvest": 6448,
      "ara": 6449,
      "Ġdang": 6450,
      "Ġgated": 6451,
      "ening": 6452,
      "Ġlanes": 6453,
      "raut": 6454,
      "alls": 6455,
      "erst": 6456,
      "Ġroute": 6457,
      "Ġsmothered": 6458,
      "ĠSAND": 6459,
      "Ġsnowsuit": 6460,
      "Ġraises": 6461,
      "Ġbuckets": 6462,
      "ĠBACK": 6463,
      "ĠMc": 6464,
      "ĠFed": 6465,
      "ĠCAKE": 6466,
      "ĠOri": 6467,
      "ĠGlass": 6468,
      "Ġplatters": 6469,
      "Ġsunsh": 6470,
      "arian": 6471,
      "Ġhazy": 6472,
      "ĠHIGH": 6473,
      "Ġcaboose": 6474,
      "estri": 6475,
      "arsely": 6476,
      "Ġwheeler": 6477,
      "ĠYELL": 6478,
      "Ġexcept": 6479,
      "Ġcommun": 6480,
      "Ġsubmer": 6481,
      "Ġwireless": 6482,
      "Ġseem": 6483,
      "liners": 6484,
      "Ġdirectional": 6485,
      "Ġpaddles": 6486,
      "Ġaccident": 6487,
      "Ġcompetitive": 6488,
      "ILDING": 6489,
      "Ġcharacters": 6490,
      "Ġangry": 6491,
      "Ġsecurity": 6492,
      "Ġenjoys": 6493,
      "ĠBUILDING": 6494,
      "Ġradiator": 6495,
      "Ġgazelle": 6496,
      "Ġfixture": 6497,
      "Ġbarrels": 6498,
      "ĠSMILING": 6499,
      "ĠArt": 6500,
      "ĠCommercial": 6501,
      "Ġamidst": 6502,
      "ĠFruits": 6503,
      "Ġskyscrapers": 6504,
      "Ġcuddling": 6505,
      "Ġeasy": 6506,
      "Ġpretending": 6507,
      "Ġarchitecture": 6508,
      "Ġpaneled": 6509,
      "Ġadmiring": 6510,
      "ĠGIRAFFE": 6511,
      "ĠWorkers": 6512,
      "Ġattention": 6513,
      "Ġsquirrel": 6514,
      "Ġtangerines": 6515,
      "Ġultimate": 6516,
      "Ġbronze": 6517,
      "ĠBIRD": 6518,
      "Ġmedicine": 6519,
      "ĠYELLOW": 6520,
      "IES": 6521,
      "TS": 6522,
      "dated": 6523,
      "iqu": 6524,
      "looking": 6525,
      "ough": 6526,
      "pical": 6527,
      "walks": 6528,
      "Ġtide": 6529,
      "Ġwaste": 6530,
      "rest": 6531,
      "ready": 6532,
      "Ġinv": 6533,
      "Ġanalog": 6534,
      "Ġhooks": 6535,
      "Ġdad": 6536,
      "Ġtoday": 6537,
      "Ġstalk": 6538,
      "Ġnut": 6539,
      "Ġshadows": 6540,
      "Ġgrain": 6541,
      "Ġflips": 6542,
      "Ġbusted": 6543,
      "Ġwaterfront": 6544,
      "airy": 6545,
      "ĠPep": 6546,
      "Ġseeds": 6547,
      "ĠWor": 6548,
      "ĠWild": 6549,
      "apers": 6550,
      "Ġsparsely": 6551,
      "Ġdiag": 6552,
      "akfast": 6553,
      "Ġbiking": 6554,
      "Ġmetrop": 6555,
      "Ġboxing": 6556,
      "ĠHappy": 6557,
      "Ġdeckered": 6558,
      "Ġmonster": 6559,
      "Ġresid": 6560,
      "rawn": 6561,
      "Ġhaircut": 6562,
      "Ġpillars": 6563,
      "Ġflaming": 6564,
      "Ġbaseman": 6565,
      "ĠUp": 6566,
      "ISB": 6567,
      "Ġenthus": 6568,
      "Ġmascot": 6569,
      "Ġreflects": 6570,
      "Ġpeeks": 6571,
      "Ġtransporting": 6572,
      "Ġlabel": 6573,
      "Ġarrows": 6574,
      "Ġmagazines": 6575,
      "ĠPolar": 6576,
      "Ġwashroom": 6577,
      "Ġrecre": 6578,
      "ĠFRISB": 6579,
      "Ġdropping": 6580,
      "ĠĠĠĠĠĠĠĠ": 6581,
      "Ġwrest": 6582,
      "ĠPassenger": 6583,
      "Ġskyscraper": 6584,
      "ĠPlayer": 6585,
      "Ġdescribe": 6586,
      "Ġfuton": 6587,
      "ĠFriends": 6588,
      "ĠDIFF": 6589,
      "Ġknocked": 6590,
      "Ġaffixed": 6591,
      "Ġcemetery": 6592,
      "ĠBreakfast": 6593,
      "Ġalert": 6594,
      "Ġambul": 6595,
      "ĠJUMPING": 6596,
      "Ġinvestig": 6597,
      "Ġsubmerged": 6598,
      "KS": 6599,
      "nuts": 6600,
      "Ġ8": 6601,
      "Ġtar": 6602,
      "ĠALL": 6603,
      "ĠAROUND": 6604,
      "Ġwok": 6605,
      "lets": 6606,
      "Ġthen": 6607,
      "Ġfu": 6608,
      "Ġmit": 6609,
      "Ġmur": 6610,
      "Ġdun": 6611,
      "Ġdome": 6612,
      "Ġdance": 6613,
      "Ġgn": 6614,
      "Ġgoose": 6615,
      "enting": 6616,
      "Ġlun": 6617,
      "Ġlate": 6618,
      "opus": 6619,
      "Ġvent": 6620,
      "Ġvests": 6621,
      "Ġlam": 6622,
      "Ġshine": 6623,
      "Ġheater": 6624,
      "Ġlength": 6625,
      "Ġalready": 6626,
      "Ġrather": 6627,
      "orth": 6628,
      "Ġenorm": 6629,
      "Ġtriple": 6630,
      "Ġchews": 6631,
      "Ġplated": 6632,
      "Ġguiding": 6633,
      "Ġcontest": 6634,
      "Ġpatrons": 6635,
      "Ġbarric": 6636,
      "issor": 6637,
      "ĠNight": 6638,
      "ĠNumer": 6639,
      "Ġscenery": 6640,
      "Ġexerc": 6641,
      "Ġincline": 6642,
      "Ġhovers": 6643,
      "Ġrugs": 6644,
      "Ġpositions": 6645,
      "Ġhooded": 6646,
      "Ġpuppies": 6647,
      "Ġadjusts": 6648,
      "Ġremod": 6649,
      "Ġawning": 6650,
      "Ġauto": 6651,
      "Ġdense": 6652,
      "ĠBeautiful": 6653,
      "Ġjockeys": 6654,
      "Ġowners": 6655,
      "ĠCHAIR": 6656,
      "Ġeverywhere": 6657,
      "Ġvendors": 6658,
      "ĠTeen": 6659,
      "Ġinstrument": 6660,
      "Ġdivided": 6661,
      "Ġsolar": 6662,
      "Ġtroph": 6663,
      "Ġcitrus": 6664,
      "Ġinstructions": 6665,
      "ĠIMAGE": 6666,
      "Ġcrystal": 6667,
      "Ġenthusi": 6668,
      "Ġenormous": 6669,
      "GG": 6670,
      "ik": 6671,
      "oid": 6672,
      "ties": 6673,
      "yer": 6674,
      "Ġking": 6675,
      "Ġoak": 6676,
      "Ġsamp": 6677,
      "Ġsided": 6678,
      "itan": 6679,
      "itude": 6680,
      "ĠAm": 6681,
      "eries": 6682,
      "Ġtheater": 6683,
      "Ġfine": 6684,
      "Ġmill": 6685,
      "omy": 6686,
      "rict": 6687,
      "ilding": 6688,
      "ilight": 6689,
      "arded": 6690,
      "Ġcola": 6691,
      "Ġbeached": 6692,
      "Ġreins": 6693,
      "Ġplaque": 6694,
      "undown": 6695,
      "Ġcarving": 6696,
      "ĠAng": 6697,
      "Ġgift": 6698,
      "ĠFLO": 6699,
      "ĠCup": 6700,
      "ago": 6701,
      "ĠOr": 6702,
      "Ġcourts": 6703,
      "Ġsandwhich": 6704,
      "ĠGREEN": 6705,
      "Ġsunflowers": 6706,
      "Ġbest": 6707,
      "Ġracer": 6708,
      "Ġtypical": 6709,
      "Ġhairy": 6710,
      "Ġcandies": 6711,
      "Ġexotic": 6712,
      "Ġvanilla": 6713,
      "Ġfacility": 6714,
      "Ġgarb": 6715,
      "Ġstyl": 6716,
      "Ġstairway": 6717,
      "ĠUMB": 6718,
      "Ġbusinessman": 6719,
      "Ġretail": 6720,
      "ĠTrains": 6721,
      "OWER": 6722,
      "Ġreturns": 6723,
      "Ġtanker": 6724,
      "Ġgener": 6725,
      "Ġdrain": 6726,
      "Ġ10": 6727,
      "Ġstudent": 6728,
      "Ġburrit": 6729,
      "Ġsleigh": 6730,
      "Ġgoalie": 6731,
      "Ġshaved": 6732,
      "Ġexamining": 6733,
      "Ġattending": 6734,
      "ERENT": 6735,
      "Ġnursing": 6736,
      "PLAY": 6737,
      "Ġidle": 6738,
      "ĠBowl": 6739,
      "ĠWIND": 6740,
      "Ġcrocheted": 6741,
      "Ġevergreen": 6742,
      "Ġhawk": 6743,
      "Ġhidden": 6744,
      "Ġmetropol": 6745,
      "ĠUMBRE": 6746,
      "brush": 6747,
      "fu": 6748,
      "gin": 6749,
      "nut": 6750,
      "pine": 6751,
      "the": 6752,
      "Ġome": 6753,
      "Ġweb": 6754,
      "rets": 6755,
      "Ġfet": 6756,
      "Ġhug": 6757,
      "Ġlat": 6758,
      "Ġlite": 6759,
      "Ġneut": 6760,
      "Ġthread": 6761,
      "Ġearth": 6762,
      "Ġyach": 6763,
      "Ġgraph": 6764,
      "ament": 6765,
      "ĠSouth": 6766,
      "ĠPart": 6767,
      "Ġsear": 6768,
      "aneous": 6769,
      "Ġless": 6770,
      "Ġwaist": 6771,
      "ppost": 6772,
      "ĠWh": 6773,
      "ĠWar": 6774,
      "Ġspir": 6775,
      "Ġenough": 6776,
      "Ġsound": 6777,
      "Ġflowery": 6778,
      "aced": 6779,
      "Ġcamel": 6780,
      "Ġlovely": 6781,
      "Ġstored": 6782,
      "Ġraining": 6783,
      "ize": 6784,
      "Ġmarketplace": 6785,
      "Ġlapse": 6786,
      "mbled": 6787,
      "Ġfora": 6788,
      "Ġtrashcan": 6789,
      "Ġgrinds": 6790,
      "ĠJet": 6791,
      "Ġhousing": 6792,
      "ĠPLANE": 6793,
      "Ġblocked": 6794,
      "Ġnoodle": 6795,
      "Ġcondu": 6796,
      "Ġdelivering": 6797,
      "Ġadvertisements": 6798,
      "Ġextending": 6799,
      "Ġeveryone": 6800,
      "ĠPHONE": 6801,
      "Ġdigging": 6802,
      "Ġbalanced": 6803,
      "ĠSoccer": 6804,
      "Ġparents": 6805,
      "ĠCrowd": 6806,
      "Ġrenovated": 6807,
      "Ġtilted": 6808,
      "Ġgalloping": 6809,
      "Ġhorizon": 6810,
      "Ġascending": 6811,
      "ĠSLOP": 6812,
      "ĠDISPLAY": 6813,
      "Ġoctopus": 6814,
      "Ġcrawling": 6815,
      "Ġgrapefruit": 6816,
      "Ġdaisies": 6817,
      "ĠDIFFERENT": 6818,
      "Ġlamppost": 6819,
      "Ex": 6820,
      "apped": 6821,
      "drawn": 6822,
      "ead": 6823,
      "grown": 6824,
      "mes": 6825,
      "not": 6826,
      "oram": 6827,
      "sized": 6828,
      "vd": 6829,
      "Ġwoo": 6830,
      "Ġwrist": 6831,
      "Ġping": 6832,
      "reg": 6833,
      "Ġofa": 6834,
      "Ġanim": 6835,
      "Ġmama": 6836,
      "Ġdanger": 6837,
      "Ġtourn": 6838,
      "Ġtofu": 6839,
      "Ġstate": 6840,
      "Ġnamed": 6841,
      "using": 6842,
      "Ġvar": 6843,
      "Ġvane": 6844,
      "Ġgrove": 6845,
      "Ġchin": 6846,
      "ĠSC": 6847,
      "ĠSingle": 6848,
      "Ġrooms": 6849,
      "Ġsigning": 6850,
      "Ġkits": 6851,
      "Ġsurfboarding": 6852,
      "Ġpoor": 6853,
      "ĠPres": 6854,
      "ĠWind": 6855,
      "ĠCooked": 6856,
      "Ġscissor": 6857,
      "asty": 6858,
      "Ġmoon": 6859,
      "Ġdiaper": 6860,
      "Ġfilthy": 6861,
      "icking": 6862,
      "ĠHAS": 6863,
      "Ġbagels": 6864,
      "Ġdecorate": 6865,
      "Ġpita": 6866,
      "Ġcurly": 6867,
      "Ġbarb": 6868,
      "Ġlinen": 6869,
      "Ġshell": 6870,
      "Ġsalt": 6871,
      "Ġsalmon": 6872,
      "ĠChina": 6873,
      "Ġpeac": 6874,
      "Ġengaging": 6875,
      "Ġcarried": 6876,
      "Ġcarton": 6877,
      "Ġcact": 6878,
      "ĠBoat": 6879,
      "Ġfunction": 6880,
      "ĠDogs": 6881,
      "Ġpropell": 6882,
      "Ġpractices": 6883,
      "Ġtwilight": 6884,
      "Ġshould": 6885,
      "Ġreflective": 6886,
      "Ġdragging": 6887,
      "Ġtails": 6888,
      "Ġpresents": 6889,
      "zzarella": 6890,
      "ĠSKY": 6891,
      "ĠToy": 6892,
      "Ġstoplights": 6893,
      "Ġmarkers": 6894,
      "Ġspinning": 6895,
      "strip": 6896,
      "Ġburner": 6897,
      "Ġbulld": 6898,
      "Ġconversing": 6899,
      "NDER": 6900,
      "Ġtorn": 6901,
      "ĠDecor": 6902,
      "Ġornaments": 6903,
      "Ġrecord": 6904,
      "Ġpencil": 6905,
      "Ġhandicap": 6906,
      "ĠLIVING": 6907,
      "Ġcurrently": 6908,
      "Ġbouncing": 6909,
      "Ġvisitors": 6910,
      "Ġpolitical": 6911,
      "Ġraspberries": 6912,
      "Ġappearing": 6913,
      "Ġceremony": 6914,
      "ĠCOMPUT": 6915,
      "Ġhundreds": 6916,
      "Ġsunshine": 6917,
      "Ġtournament": 6918,
      "GH": 6919,
      "US": 6920,
      "UFF": 6921,
      "WAY": 6922,
      "cess": 6923,
      "cient": 6924,
      "rs": 6925,
      "sk": 6926,
      "uis": 6927,
      "yal": 6928,
      "Ġ9": 6929,
      "Ġais": 6930,
      "erk": 6931,
      "Ġfis": 6932,
      "Ġgang": 6933,
      "Ġstu": 6934,
      "Ġstars": 6935,
      "lable": 6936,
      "Ġvending": 6937,
      "undry": 6938,
      "Ġyour": 6939,
      "anted": 6940,
      "Ġbasic": 6941,
      "Ġsidecar": 6942,
      "style": 6943,
      "ycling": 6944,
      "tles": 6945,
      "Ġhedge": 6946,
      "Ġrat": 6947,
      "Ġtrey": 6948,
      "Ġteal": 6949,
      "Ġmozzarella": 6950,
      "Ġcolum": 6951,
      "Ġfilm": 6952,
      "Ġbridle": 6953,
      "ĠOLD": 6954,
      "Ġfences": 6955,
      "Ġgoble": 6956,
      "Ġappa": 6957,
      "ĠLo": 6958,
      "ĠLYING": 6959,
      "Ġstandard": 6960,
      "ĠGold": 6961,
      "Ġtaller": 6962,
      "Ġremains": 6963,
      "Ġpati": 6964,
      "Ġbarber": 6965,
      "ĠChocolate": 6966,
      "Ġpeach": 6967,
      "Ġhoop": 6968,
      "Ġsettings": 6969,
      "Ġnecklace": 6970,
      "born": 6971,
      "Ġequestri": 6972,
      "Ġswims": 6973,
      "Ġfoal": 6974,
      "Ġtrails": 6975,
      "Ġwedge": 6976,
      "ĠSkate": 6977,
      "Ġapproach": 6978,
      "IRRO": 6979,
      "ucch": 6980,
      "Ġglow": 6981,
      "Ġcalves": 6982,
      "Ġcharging": 6983,
      "ĠTRUCK": 6984,
      "Ġsectional": 6985,
      "Ġfinishing": 6986,
      "ĠRoom": 6987,
      "Ġautumn": 6988,
      "Ġfocused": 6989,
      "Ġmoment": 6990,
      "Ġfedora": 6991,
      "Ġactiv": 6992,
      "Ġrises": 6993,
      "Ġornament": 6994,
      "Ġrecliner": 6995,
      "Ġdestro": 6996,
      "Ġdestination": 6997,
      "Ġgoof": 6998,
      "Ġoxen": 6999,
      "Ġkayak": 7000,
      "ĠBIKE": 7001,
      "ĠTAKING": 7002,
      "Ġshooting": 7003,
      "Ġcramped": 7004,
      "Ġgadgets": 7005,
      "Ġcalculator": 7006,
      "erstate": 7007,
      "ĠNumerous": 7008,
      "ĠWINDOW": 7009,
      "Ġmetropolitan": 7010,
      "ĠUMBRELL": 7011,
      "Ġomelet": 7012,
      "Ġneutral": 7013,
      "come": 7014,
      "ivers": 7015,
      "kn": 7016,
      "ther": 7017,
      "uilding": 7018,
      "zard": 7019,
      "Ġug": 7020,
      "inery": 7021,
      "inary": 7022,
      "Ġtr": 7023,
      "Ġtired": 7024,
      "Ġdiced": 7025,
      "Ġgla": 7026,
      "Ġgone": 7027,
      "Ġnasty": 7028,
      "Ġcole": 7029,
      "Ġcoaster": 7030,
      "Ġske": 7031,
      "Ġbeca": 7032,
      "Ġdocks": 7033,
      "Ġdozens": 7034,
      "Ġparl": 7035,
      "Ġcho": 7036,
      "ĠSomebody": 7037,
      "ĠSiamese": 7038,
      "Ġwaling": 7039,
      "Ġraquet": 7040,
      "Ġsidewalks": 7041,
      "Ġbuy": 7042,
      "Ġlives": 7043,
      "ieces": 7044,
      "Ġzucch": 7045,
      "entr": 7046,
      "ĠBack": 7047,
      "ĠMIRRO": 7048,
      "Ġintric": 7049,
      "ĠWOOD": 7050,
      "ĠCO": 7051,
      "Ġshowroom": 7052,
      "ĠSeagull": 7053,
      "Ġpreform": 7054,
      "Ġpregn": 7055,
      "ĠLIT": 7056,
      "ĠLIGHT": 7057,
      "Ġimport": 7058,
      "Ġstuffing": 7059,
      "Ġknacks": 7060,
      "pective": 7061,
      "Ġbricked": 7062,
      "ĠRow": 7063,
      "gram": 7064,
      "Ġattack": 7065,
      "ĠYou": 7066,
      "Ġstrips": 7067,
      "Ġpeak": 7068,
      "Ġpeaking": 7069,
      "Ġspec": 7070,
      "Ġworked": 7071,
      "Ġworkstation": 7072,
      "ĠKreme": 7073,
      "ensive": 7074,
      "Ġcrab": 7075,
      "Ġkittens": 7076,
      "Ġcaps": 7077,
      "Ġcasual": 7078,
      "Ġdrapes": 7079,
      "Ġradishes": 7080,
      "ADY": 7081,
      "Ġavai": 7082,
      "ĠFROM": 7083,
      "Ġcreepy": 7084,
      "Ġreclining": 7085,
      "Ġbiscuits": 7086,
      "Ġmannequin": 7087,
      "haired": 7088,
      "Ġathletic": 7089,
      "foam": 7090,
      "ĠVehicles": 7091,
      "ĠZEBRAS": 7092,
      "ĠItalian": 7093,
      "Ġestab": 7094,
      "turned": 7095,
      "pherd": 7096,
      "Ġresidence": 7097,
      "ĠFRISBEE": 7098,
      "Ġambulance": 7099,
      "ĠFLOOR": 7100,
      "Ġbecause": 7101,
      "Ġpregnant": 7102,
      "Ġimportant": 7103,
      "Ġavailable": 7104,
      "AG": 7105,
      "PS": 7106,
      "oro": 7107,
      "rings": 7108,
      "sed": 7109,
      "ua": 7110,
      "Ġurn": 7111,
      "Ġwired": 7112,
      "Ġwonder": 7113,
      "athered": 7114,
      "Ġfell": 7115,
      "isted": 7116,
      "Ġdu": 7117,
      "Ġduff": 7118,
      "Ġdrop": 7119,
      "Ġdots": 7120,
      "omas": 7121,
      "ashed": 7122,
      "riotic": 7123,
      "Ġbeers": 7124,
      "Ġyield": 7125,
      "Ġpersonnel": 7126,
      "Ġflash": 7127,
      "Ġsnap": 7128,
      "ĠSqu": 7129,
      "Ġairstrip": 7130,
      "Ġjug": 7131,
      "Ġheight": 7132,
      "rise": 7133,
      "Ġwindm": 7134,
      "ĠFrisb": 7135,
      "ĠCow": 7136,
      "Ġdem": 7137,
      "agie": 7138,
      "Ġspring": 7139,
      "Ġteap": 7140,
      "Ġmosa": 7141,
      "Ġchee": 7142,
      "ĠGO": 7143,
      "Ġcontact": 7144,
      "Ġserver": 7145,
      "Ġforehead": 7146,
      "Ġplantains": 7147,
      "Ġattach": 7148,
      "Ġpaneling": 7149,
      "ĠEight": 7150,
      "Ġbreads": 7151,
      "lica": 7152,
      "ĠChicken": 7153,
      "Ġdocking": 7154,
      "Ġexper": 7155,
      "Ġpeaches": 7156,
      "Ġhoagie": 7157,
      "ĠINSIDE": 7158,
      "ĠKrispy": 7159,
      "Ġconcentr": 7160,
      "ĠUmb": 7161,
      "ĠUNDER": 7162,
      "structed": 7163,
      "bank": 7164,
      "ĠDoor": 7165,
      "ĠDough": 7166,
      "ĠVariety": 7167,
      "Ġglider": 7168,
      "Ġsepia": 7169,
      "Ġdeliver": 7170,
      "Ġcharger": 7171,
      "Ġbells": 7172,
      "ĠMotorc": 7173,
      "Ġcustomer": 7174,
      "Ġarchway": 7175,
      "ĠBanana": 7176,
      "Ġribbons": 7177,
      "Ġcaptured": 7178,
      "Ġtrimmed": 7179,
      "ratul": 7180,
      "ĠLego": 7181,
      "Ġsilhouet": 7182,
      "Ġstormy": 7183,
      "Ġsauerk": 7184,
      "Ġchannel": 7185,
      "Ġrobot": 7186,
      "GETABLE": 7187,
      "Ġwould": 7188,
      "Ġhandicapped": 7189,
      "Ġcongreg": 7190,
      "Ġhunched": 7191,
      "ĠVEGETABLE": 7192,
      "Ġponies": 7193,
      "Ġticket": 7194,
      "ĠBANAN": 7195,
      "Ġaisle": 7196,
      "Ġzucchini": 7197,
      "ĠMIRROR": 7198,
      "00": 7199,
      "ULL": 7200,
      "bucks": 7201,
      "bably": 7202,
      "hop": 7203,
      "ham": 7204,
      "hift": 7205,
      "ih": 7206,
      "ians": 7207,
      "lings": 7208,
      "mers": 7209,
      "Ġaffe": 7210,
      "Ġtier": 7211,
      "Ġtrot": 7212,
      "Ġsuck": 7213,
      "Ġbring": 7214,
      "rees": 7215,
      "ream": 7216,
      "Ġcables": 7217,
      "Ġinc": 7218,
      "rofoam": 7219,
      "Ġann": 7220,
      "Ġancient": 7221,
      "Ġginger": 7222,
      "Ġstay": 7223,
      "rail": 7224,
      "ckled": 7225,
      "oring": 7226,
      "ĠTE": 7227,
      "Ġni": 7228,
      "elve": 7229,
      "uters": 7230,
      "Ġvine": 7231,
      "Ġvans": 7232,
      "iles": 7233,
      "Ġrig": 7234,
      "Ġlaundry": 7235,
      "amon": 7236,
      "amel": 7237,
      "ĠSP": 7238,
      "Ġbubble": 7239,
      "Ġhash": 7240,
      "Ġlive": 7241,
      "Ġlips": 7242,
      "Ġlego": 7243,
      "Ġovergrown": 7244,
      "ented": 7245,
      "ĠBaked": 7246,
      "ĠCle": 7247,
      "ĠCor": 7248,
      "Ġunderground": 7249,
      "Ġspark": 7250,
      "Ġbanquet": 7251,
      "Ġcolumn": 7252,
      "ĠOver": 7253,
      "Ġfencing": 7254,
      "Ġgoers": 7255,
      "Ġviews": 7256,
      "Ġvegetarian": 7257,
      "Ġproper": 7258,
      "Ġloft": 7259,
      "Ġknot": 7260,
      "Ġhousehold": 7261,
      "Ġamuse": 7262,
      "Ġpear": 7263,
      "inton": 7264,
      "Ġspewing": 7265,
      "Ġsquats": 7266,
      "Ġdistrict": 7267,
      "Ġsubst": 7268,
      "ĠGroups": 7269,
      "Ġpackaged": 7270,
      "Ġeyed": 7271,
      "quee": 7272,
      "bbling": 7273,
      "ALK": 7274,
      "ENT": 7275,
      "ĠDozens": 7276,
      "Ġaccess": 7277,
      "coat": 7278,
      "Ġcloths": 7279,
      "Ġclad": 7280,
      "Ġsorts": 7281,
      "Ġclimbs": 7282,
      "Ġgrooming": 7283,
      "ĠBOAT": 7284,
      "Ġsections": 7285,
      "Ġinstead": 7286,
      "Ġcomplex": 7287,
      "Ġcheeses": 7288,
      "Ġjob": 7289,
      "Ġpopulated": 7290,
      "Ġlevels": 7291,
      "Ġcaptivity": 7292,
      "Ġlanguages": 7293,
      "Ġdescending": 7294,
      "Ġawaits": 7295,
      "Ġproduct": 7296,
      "Ġcarefully": 7297,
      "Ġpushes": 7298,
      "Ġcompartments": 7299,
      "Ġcuriously": 7300,
      "ĠSandwiches": 7301,
      "Ġbeanie": 7302,
      "market": 7303,
      "Ġcontraption": 7304,
      "Ġranch": 7305,
      "ĠBicycles": 7306,
      "Ġconsumption": 7307,
      "Ġtechn": 7308,
      "Ġtrekking": 7309,
      "Ġdangling": 7310,
      "Ġmurky": 7311,
      "Ġforaging": 7312,
      "Ġpatiently": 7313,
      "Ġdestroyed": 7314,
      "Ġlivestock": 7315,
      "Ġestablish": 7316,
      "Ġmosaic": 7317,
      "IF": 7318,
      "NER": 7319,
      "The": 7320,
      "UB": 7321,
      "au": 7322,
      "food": 7323,
      "ker": 7324,
      "nas": 7325,
      "wor": 7326,
      "Ġtip": 7327,
      "Ġberry": 7328,
      "Ġpong": 7329,
      "Ġmice": 7330,
      "Ġhuddle": 7331,
      "Ġlung": 7332,
      "Ġtoned": 7333,
      "ĠTREE": 7334,
      "opes": 7335,
      "allows": 7336,
      "ello": 7337,
      "eline": 7338,
      "olog": 7339,
      "ica": 7340,
      "used": 7341,
      "Ġver": 7342,
      "Ġparrots": 7343,
      "Ġchill": 7344,
      "ĠSw": 7345,
      "Ġsnowing": 7346,
      "seat": 7347,
      "boards": 7348,
      "Ġseed": 7349,
      "ĠMountain": 7350,
      "Ġinterstate": 7351,
      "Ġrink": 7352,
      "Ġrally": 7353,
      "Ġthroughout": 7354,
      "ĠCOW": 7355,
      "Ġbrowns": 7356,
      "orted": 7357,
      "Ġhanded": 7358,
      "Ġteac": 7359,
      "Ġcolla": 7360,
      "umpled": 7361,
      "Ġbib": 7362,
      "ĠIm": 7363,
      "Ġviewer": 7364,
      "ĠGri": 7365,
      "aces": 7366,
      "Ġsunlit": 7367,
      "Ġprobably": 7368,
      "Ġkno": 7369,
      "Ġadded": 7370,
      "ĠDE": 7371,
      "Ġhighchair": 7372,
      "Ġpatriotic": 7373,
      "estic": 7374,
      "ĠRail": 7375,
      "Ġhello": 7376,
      "arters": 7377,
      "Ġpanoram": 7378,
      "Ġsalon": 7379,
      "Ġsalsa": 7380,
      "ĠANIM": 7381,
      "Ġseeing": 7382,
      "Ġwrapping": 7383,
      "AST": 7384,
      "ETHING": 7385,
      "Ġmachinery": 7386,
      "Ġmaster": 7387,
      "monds": 7388,
      "Ġwheelie": 7389,
      "Ġmakeshift": 7390,
      "Ġmedian": 7391,
      "Ġcasting": 7392,
      "ILL": 7393,
      "Ġexpan": 7394,
      "Ġmagnet": 7395,
      "Ġparasail": 7396,
      "Ġcombing": 7397,
      "Ġreadies": 7398,
      "Ġunused": 7399,
      "Ġpumpkin": 7400,
      "ĠEngland": 7401,
      "Ġrising": 7402,
      "Ġspaces": 7403,
      "ĠArmy": 7404,
      "Ġpeacefully": 7405,
      "Ġburners": 7406,
      "ĠSOMETHING": 7407,
      "ĠOutside": 7408,
      "ĠOutdoor": 7409,
      "Ġwaffle": 7410,
      "Ġsupermarket": 7411,
      "Ġemployees": 7412,
      "Ġgraduation": 7413,
      "ĠTruck": 7414,
      "Ġvertical": 7415,
      "Ġbrushed": 7416,
      "Ġpantry": 7417,
      "Ġmarkings": 7418,
      "Ġpauses": 7419,
      "Ġqueen": 7420,
      "ĠWorld": 7421,
      "Ġrecreational": 7422,
      "Ġconductor": 7423,
      "Ġcolumns": 7424,
      "Ġequestrian": 7425,
      "Ġactivities": 7426,
      "Ġugly": 7427,
      "ĠFrisbees": 7428,
      "Ġsauerkraut": 7429,
      "Ġaffection": 7430,
      "Ġamusement": 7431,
      "ORE": 7432,
      "VD": 7433,
      "cell": 7434,
      "dgerator": 7435,
      "of": 7436,
      "ound": 7437,
      "rin": 7438,
      "whe": 7439,
      "Ġu": 7440,
      "Ġtap": 7441,
      "Ġses": 7442,
      "Ġbarge": 7443,
      "Ġbug": 7444,
      "ĠAL": 7445,
      "Ġcris": 7446,
      "roning": 7447,
      "Ġfist": 7448,
      "Ġding": 7449,
      "Ġlas": 7450,
      "Ġstages": 7451,
      "omber": 7452,
      "Ġnature": 7453,
      "opard": 7454,
      "Ġroot": 7455,
      "Ġlav": 7456,
      "Ġlicks": 7457,
      "ĠPit": 7458,
      "ĠPot": 7459,
      "Ġconverted": 7460,
      "Ġalmonds": 7461,
      "ĠWest": 7462,
      "ĠCats": 7463,
      "ĠCOL": 7464,
      "Ġfireman": 7465,
      "Ġflorets": 7466,
      "iforn": 7467,
      "Ġprey": 7468,
      "Ġtricycle": 7469,
      "ĠGo": 7470,
      "Ġclip": 7471,
      "Ġproud": 7472,
      "Ġguide": 7473,
      "Ġcrowds": 7474,
      "ĠDin": 7475,
      "ĠHOT": 7476,
      "Ġsteal": 7477,
      "hicago": 7478,
      "Ġhalfway": 7479,
      "ĠStud": 7480,
      "Ġspeaks": 7481,
      "Ġlayed": 7482,
      "autifully": 7483,
      "Ġwildeb": 7484,
      "Ġlands": 7485,
      "Ġpacking": 7486,
      "Ġgloomy": 7487,
      "Ġformally": 7488,
      "Ġladen": 7489,
      "Ġrooft": 7490,
      "Ġclaw": 7491,
      "Ġjew": 7492,
      "Ġfollow": 7493,
      "Ġgroomed": 7494,
      "Ġturtle": 7495,
      "Ġ12": 7496,
      "Ġhandleb": 7497,
      "Ġreplica": 7498,
      "ĠBusy": 7499,
      "Ġalleyway": 7500,
      "Ġnumeral": 7501,
      "Ġbrace": 7502,
      "Ġpresented": 7503,
      "Ġhearts": 7504,
      "Ġbarely": 7505,
      "Ġdemonstration": 7506,
      "Ġfleet": 7507,
      "innamon": 7508,
      "Ġwiping": 7509,
      "Ġstockings": 7510,
      "ĠStatue": 7511,
      "Ġmechanical": 7512,
      "ĠDesk": 7513,
      "ĠFedEx": 7514,
      "Ġcactus": 7515,
      "Ġparlor": 7516,
      "Ġteapot": 7517,
      "ĠDoorway": 7518,
      "Ġsubstance": 7519,
      "Ġlunging": 7520,
      "ĠANIMAL": 7521,
      "Ġexpanse": 7522,
      "ifornia": 7523,
      "down": 7524,
      "oy": 7525,
      "occupied": 7526,
      "po": 7527,
      "si": 7528,
      "tail": 7529,
      "tower": 7530,
      "Ġet": 7531,
      "Ġiv": 7532,
      "Ġsell": 7533,
      "Ġpers": 7534,
      "Ġpush": 7535,
      "Ġpud": 7536,
      "Ġcinnamon": 7537,
      "lect": 7538,
      "Ġmight": 7539,
      "Ġtot": 7540,
      "ckey": 7541,
      "iders": 7542,
      "urgers": 7543,
      "erside": 7544,
      "iche": 7545,
      "icans": 7546,
      "ictor": 7547,
      "Ġbeam": 7548,
      "Ġripen": 7549,
      "Ġbatch": 7550,
      "Ġchanging": 7551,
      "Ġdownward": 7552,
      "ĠSW": 7553,
      "Ġbust": 7554,
      "ctural": 7555,
      "Ġpokes": 7556,
      "Ġmotes": 7557,
      "ĠPieces": 7558,
      "Ġleopard": 7559,
      "ĠBirthday": 7560,
      "eech": 7561,
      "Ġslippers": 7562,
      "Ġalpine": 7563,
      "ĠME": 7564,
      "ĠMain": 7565,
      "ĠFront": 7566,
      "ĠCD": 7567,
      "ĠChicago": 7568,
      "Ġhandled": 7569,
      "Ġhandstand": 7570,
      "asts": 7571,
      "Ġspeech": 7572,
      "Ġbunt": 7573,
      "ĠOCE": 7574,
      "dock": 7575,
      "Ġsafe": 7576,
      "Ġbroad": 7577,
      "Ġprotru": 7578,
      "INE": 7579,
      "Ġherded": 7580,
      "Ġraces": 7581,
      "Ġcontrolled": 7582,
      "Ġboot": 7583,
      "ĠNavy": 7584,
      "weed": 7585,
      "Ġways": 7586,
      "Ġamaz": 7587,
      "Ġhockey": 7588,
      "Ġflowering": 7589,
      "Ġclothed": 7590,
      "Ġfreely": 7591,
      "Ġpartial": 7592,
      "ĠKE": 7593,
      "Ġconcert": 7594,
      "roadway": 7595,
      "Ġfeature": 7596,
      "ĠSTUFF": 7597,
      "ensely": 7598,
      "Ġseafood": 7599,
      "Ġextreme": 7600,
      "Ġhamm": 7601,
      "Ġironing": 7602,
      "ĠSUIT": 7603,
      "Ġpresenting": 7604,
      "ELF": 7605,
      "flower": 7606,
      "Ġobserve": 7607,
      "Ġsucc": 7608,
      "Ġpumpkins": 7609,
      "Ġsweep": 7610,
      "Ġwander": 7611,
      "Ġbarriers": 7612,
      "Ġdrops": 7613,
      "ĠLeague": 7614,
      "Ġcompanion": 7615,
      "Ġexamines": 7616,
      "VERAL": 7617,
      "Ġrecording": 7618,
      "Ġstreetlights": 7619,
      "ĠSEVERAL": 7620,
      "Ġblooming": 7621,
      "Ġmarshm": 7622,
      "Ġresemb": 7623,
      "Ġcroissant": 7624,
      "Ġipod": 7625,
      "Ġspiral": 7626,
      "Ġpeacock": 7627,
      "ĠCOMPUTER": 7628,
      "ĠLITTLE": 7629,
      "ĠSquare": 7630,
      "Ġsesame": 7631,
      "ĠOCEAN": 7632,
      "col": 7633,
      "fight": 7634,
      "press": 7635,
      "uah": 7636,
      "vas": 7637,
      "well": 7638,
      "Ġ(": 7639,
      "Ġaboard": 7640,
      "Ġaward": 7641,
      "inating": 7642,
      "held": 7643,
      "ances": 7644,
      "Ġcame": 7645,
      "Ġhides": 7646,
      "Ġgull": 7647,
      "Ġtook": 7648,
      "Ġstalks": 7649,
      "oman": 7650,
      "ĠTooth": 7651,
      "oped": 7652,
      "utter": 7653,
      "iddle": 7654,
      "ards": 7655,
      "Ġcob": 7656,
      "Ġbeads": 7657,
      "Ġroam": 7658,
      "Ġvines": 7659,
      "ffice": 7660,
      "Ġshack": 7661,
      "Ġyummy": 7662,
      "Ġchoc": 7663,
      "ĠSa": 7664,
      "ĠSail": 7665,
      "igned": 7666,
      "ĠAnd": 7667,
      "Ġplayfully": 7668,
      "Ġjugg": 7669,
      "Ġpoured": 7670,
      "epad": 7671,
      "Ġweathered": 7672,
      "Ġcityscape": 7673,
      "Ġaltered": 7674,
      "Ġrundown": 7675,
      "ĠCake": 7676,
      "ĠCute": 7677,
      "Ġlitter": 7678,
      "aping": 7679,
      "Ġsoars": 7680,
      "dog": 7681,
      "Ġstandup": 7682,
      "venile": 7683,
      "Ġunt": 7684,
      "Ġprof": 7685,
      "Ġloves": 7686,
      "Ġrefridgerator": 7687,
      "ĠDri": 7688,
      "ĠHE": 7689,
      "ĠHaw": 7690,
      "Ġmarks": 7691,
      "ĠRUN": 7692,
      "ĠNine": 7693,
      "ĠStates": 7694,
      "auty": 7695,
      "ĠKid": 7696,
      "Ġbutcher": 7697,
      "Ġpackaging": 7698,
      "Ġnewborn": 7699,
      "Ġwedges": 7700,
      "Ġmusc": 7701,
      "Ġgathers": 7702,
      "Ġstrap": 7703,
      "Ġgrilling": 7704,
      "ICH": 7705,
      "Ġmisses": 7706,
      "ĠAirport": 7707,
      "Ġwatersk": 7708,
      "Ġstudying": 7709,
      "CHING": 7710,
      "Ġtrolly": 7711,
      "ĠPLAYER": 7712,
      "Ġdepicted": 7713,
      "ĠITS": 7714,
      "Ġbandana": 7715,
      "Ġactivity": 7716,
      "Ġrepairs": 7717,
      "Ġreception": 7718,
      "Ġseasoned": 7719,
      "Ġmovies": 7720,
      "ĠSKATEBOARD": 7721,
      "Ġidly": 7722,
      "ĠCheese": 7723,
      "Ġpilots": 7724,
      "ĠAIRPL": 7725,
      "ĠHands": 7726,
      "Ġsnuggling": 7727,
      "marine": 7728,
      "ĠInterior": 7729,
      "Ġdiscussing": 7730,
      "Ġblades": 7731,
      "Ġmannequins": 7732,
      "Ġreleasing": 7733,
      "Ġassembly": 7734,
      "Ġmaneuver": 7735,
      "Ġnuzzling": 7736,
      "ROWN": 7737,
      "Ġspreading": 7738,
      "ĠHarley": 7739,
      "Ġcontemporary": 7740,
      "ĠClaus": 7741,
      "ĠStarbucks": 7742,
      "Ġblazer": 7743,
      "Ġwrought": 7744,
      "ĠCalifornia": 7745,
      "ĠMcD": 7746,
      "Ġmitts": 7747,
      "Ġtrophy": 7748,
      "Ġburrito": 7749,
      "Ġanimated": 7750,
      "ĠPresident": 7751,
      "ihuah": 7752,
      "Ġestablishment": 7753,
      "cellaneous": 7754,
      "Ġhammock": 7755,
      "ihuahua": 7756,
      "CYCLE": 7757,
      "TH": 7758,
      "fting": 7759,
      "hy": 7760,
      "net": 7761,
      "pace": 7762,
      "post": 7763,
      "tel": 7764,
      "verse": 7765,
      "Ġable": 7766,
      "Ġwants": 7767,
      "Ġcant": 7768,
      "Ġcrying": 7769,
      "atian": 7770,
      "Ġdolly": 7771,
      "Ġgor": 7772,
      "unks": 7773,
      "Ġnine": 7774,
      "Ġnorm": 7775,
      "olding": 7776,
      "Ġcoated": 7777,
      "Ġbeautifully": 7778,
      "Ġreact": 7779,
      "Ġvess": 7780,
      "Ġplun": 7781,
      "Ġboiled": 7782,
      "Ġchunks": 7783,
      "antic": 7784,
      "Ġuphill": 7785,
      "ĠSl": 7786,
      "ĠSuit": 7787,
      "ston": 7788,
      "stract": 7789,
      "ĠPat": 7790,
      "Ġoverturned": 7791,
      "Ġmotorboat": 7792,
      "Ġwak": 7793,
      "rellas": 7794,
      "ĠBra": 7795,
      "ĠBIG": 7796,
      "ĠBroadway": 7797,
      "ĠBROWN": 7798,
      "Ġslanted": 7799,
      "ĠMe": 7800,
      "ĠMini": 7801,
      "ĠCL": 7802,
      "ĠCut": 7803,
      "Ġflour": 7804,
      "fficult": 7805,
      "Ġtriangle": 7806,
      "ĠLE": 7807,
      "Ġheadband": 7808,
      "Ġhitched": 7809,
      "ĠGU": 7810,
      "Ġsunb": 7811,
      "Ġdrum": 7812,
      "vender": 7813,
      "Ġpromin": 7814,
      "ĠTHEIR": 7815,
      "ĠDirt": 7816,
      "ĠHallow": 7817,
      "shopped": 7818,
      "Ġallowed": 7819,
      "othic": 7820,
      "Ġshells": 7821,
      "ĠRest": 7822,
      "Ġsleepy": 7823,
      "Ġnovel": 7824,
      "ĠEld": 7825,
      "olded": 7826,
      "Ġobsc": 7827,
      "lender": 7828,
      "Ġlandsc": 7829,
      "Ġquaint": 7830,
      "Ġpaddock": 7831,
      "almatian": 7832,
      "Ġbloss": 7833,
      "OTH": 7834,
      "Ġretro": 7835,
      "Ġceilings": 7836,
      "Ġdepar": 7837,
      "Ġmodels": 7838,
      "Ġmasks": 7839,
      "Ġtwent": 7840,
      "Ġjuic": 7841,
      "meal": 7842,
      "Ġutensil": 7843,
      "Ġstreamers": 7844,
      "Ġrearview": 7845,
      "Ġlaughs": 7846,
      "Ġcharter": 7847,
      "Ġabund": 7848,
      "ĠCola": 7849,
      "Ġfrisby": 7850,
      "Ġtosses": 7851,
      "Ġcertain": 7852,
      "Ġaprons": 7853,
      "Ġbrass": 7854,
      "Ġmaintain": 7855,
      "ĠHotel": 7856,
      "Ġregion": 7857,
      "Ġreceive": 7858,
      "Ġthose": 7859,
      "Ġnightstands": 7860,
      "Ġbison": 7861,
      "ĠFIRE": 7862,
      "Ġroasted": 7863,
      "Ġflavors": 7864,
      "Ġrobes": 7865,
      "Ġsnuggled": 7866,
      "Ġdefensive": 7867,
      "Ġarchitectural": 7868,
      "Ġcockpit": 7869,
      "Ġblade": 7870,
      "Ġathletes": 7871,
      "Ġera": 7872,
      "ĠMOTORCYCLE": 7873,
      "ĠBedroom": 7874,
      "Ġrhino": 7875,
      "Ġluxury": 7876,
      "Ġboulders": 7877,
      "ĠElectronic": 7878,
      "ĠTRACKS": 7879,
      "ĠOlympic": 7880,
      "ĠSeagulls": 7881,
      "Ġpreforming": 7882,
      "ĠMcDonal": 7883,
      "ĠHalloween": 7884,
      "HERE": 7885,
      "THER": 7886,
      "UP": 7887,
      "WICH": 7888,
      "haw": 7889,
      "mble": 7890,
      "oles": 7891,
      "Ġ$": 7892,
      "Ġtesting": 7893,
      "Ġoat": 7894,
      "Ġoccup": 7895,
      "ĠAust": 7896,
      "Ġpub": 7897,
      "reo": 7898,
      "Ġinner": 7899,
      "Ġdairy": 7900,
      "ene": 7901,
      "Ġtone": 7902,
      "orial": 7903,
      "ĠTime": 7904,
      "ĠTables": 7905,
      "Ġmang": 7906,
      "Ġnook": 7907,
      "Ġnails": 7908,
      "rier": 7909,
      "Ġbeauty": 7910,
      "eburger": 7911,
      "Ġven": 7912,
      "Ġplums": 7913,
      "Ġchinese": 7914,
      "Ġupwards": 7915,
      "ĠSan": 7916,
      "ĠSomething": 7917,
      "Ġoutdated": 7918,
      "Ġsnowman": 7919,
      "Ġcaramel": 7920,
      "stick": 7921,
      "stairs": 7922,
      "Ġbuds": 7923,
      "Ġburied": 7924,
      "Ġplayful": 7925,
      "Ġcombo": 7926,
      "umber": 7927,
      "ĠPC": 7928,
      "Ġwavy": 7929,
      "ĠBOW": 7930,
      "Ġshearing": 7931,
      "ĠWall": 7932,
      "ĠWell": 7933,
      "ĠWine": 7934,
      "ĠWhat": 7935,
      "ĠFather": 7936,
      "Ġunderside": 7937,
      "Ġspraw": 7938,
      "Ġspilled": 7939,
      "Ġdifficult": 7940,
      "play": 7941,
      "ifying": 7942,
      "Ġdrizz": 7943,
      "Ġproce": 7944,
      "Ġprogram": 7945,
      "Ġcoral": 7946,
      "dering": 7947,
      "ĠDVD": 7948,
      "ustr": 7949,
      "tenance": 7950,
      "ĠRV": 7951,
      "ĠRef": 7952,
      "ĠVIE": 7953,
      "ĠEl": 7954,
      "Ġfours": 7955,
      "ĠYARD": 7956,
      "Ġpeer": 7957,
      "Ġsubmarine": 7958,
      "Ġpartition": 7959,
      "Ġfamous": 7960,
      "Ġstylish": 7961,
      "Ġteamm": 7962,
      "Ġswimmers": 7963,
      "Ġquarters": 7964,
      "Ġchecker": 7965,
      "Ġoverlook": 7966,
      "Ġgrind": 7967,
      "avids": 7968,
      "ĠJo": 7969,
      "Ġjuvenile": 7970,
      "ĠMulti": 7971,
      "Ġwarns": 7972,
      "Ġglaze": 7973,
      "Ġmicrophones": 7974,
      "Ġcelebratory": 7975,
      "Ġsurroundings": 7976,
      "Ġcaptive": 7977,
      "Ġoperated": 7978,
      "Ġplank": 7979,
      "ĠCOUCH": 7980,
      "ĠCOUNT": 7981,
      "ĠCOUPLE": 7982,
      "Ġfairly": 7983,
      "Ġpeanuts": 7984,
      "Ġminimal": 7985,
      "Ġsneaker": 7986,
      "ebox": 7987,
      "ĠSnowboarders": 7988,
      "Ġarrive": 7989,
      "ĠGROUND": 7990,
      "Ġbadm": 7991,
      "ĠSpanish": 7992,
      "amsung": 7993,
      "Ġmessing": 7994,
      "Ġpressing": 7995,
      "Ġtongs": 7996,
      "Ġrenovation": 7997,
      "ĠBowls": 7998,
      "Ġdiscussion": 7999
    },
    "merges": [
      [
        "Ġ",
        "a"
      ],
      [
        "i",
        "n"
      ],
      [
        "Ġ",
        "t"
      ],
      [
        "Ġ",
        "o"
      ],
      [
        "Ġ",
        "s"
      ],
      [
        "in",
        "g"
      ],
      [
        "i",
        "t"
      ],
      [
        "Ġ",
        "b"
      ],
      [
        "Ġ",
        "A"
      ],
      [
        "Ġ",
        "w"
      ],
      [
        "h",
        "e"
      ],
      [
        "Ġ",
        "p"
      ],
      [
        "a",
        "n"
      ],
      [
        "r",
        "e"
      ],
      [
        "Ġ",
        "c"
      ],
      [
        "l",
        "e"
      ],
      [
        "e",
        "r"
      ],
      [
        "Ġo",
        "n"
      ],
      [
        "a",
        "t"
      ],
      [
        "Ġo",
        "f"
      ],
      [
        "Ġ",
        "in"
      ],
      [
        "a",
        "r"
      ],
      [
        "r",
        "o"
      ],
      [
        "Ġt",
        "he"
      ],
      [
        "Ġa",
        "n"
      ],
      [
        "Ġ",
        "f"
      ],
      [
        "i",
        "s"
      ],
      [
        "Ġ",
        "m"
      ],
      [
        "Ġw",
        "it"
      ],
      [
        "Ġwit",
        "h"
      ],
      [
        "Ġ",
        "h"
      ],
      [
        "Ġ",
        "d"
      ],
      [
        "Ġan",
        "d"
      ],
      [
        "Ġ",
        "g"
      ],
      [
        "a",
        "l"
      ],
      [
        "e",
        "n"
      ],
      [
        "Ġ",
        "l"
      ],
      [
        "Ġt",
        "o"
      ],
      [
        "Ġs",
        "t"
      ],
      [
        "o",
        "m"
      ],
      [
        "r",
        "a"
      ],
      [
        "d",
        "ing"
      ],
      [
        "e",
        "s"
      ],
      [
        "o",
        "n"
      ],
      [
        "e",
        "d"
      ],
      [
        "o",
        "w"
      ],
      [
        "c",
        "k"
      ],
      [
        "Ġ",
        "is"
      ],
      [
        "o",
        "r"
      ],
      [
        "e",
        "t"
      ],
      [
        "u",
        "n"
      ],
      [
        "a",
        "s"
      ],
      [
        "Ġ",
        "T"
      ],
      [
        "i",
        "r"
      ],
      [
        "Ġm",
        "an"
      ],
      [
        "Ġ",
        "n"
      ],
      [
        "l",
        "a"
      ],
      [
        "o",
        "p"
      ],
      [
        "t",
        "ing"
      ],
      [
        "al",
        "l"
      ],
      [
        "Ġs",
        "it"
      ],
      [
        "c",
        "h"
      ],
      [
        "u",
        "p"
      ],
      [
        "r",
        "i"
      ],
      [
        "o",
        "o"
      ],
      [
        "Ġn",
        "e"
      ],
      [
        "i",
        "l"
      ],
      [
        "e",
        "l"
      ],
      [
        "o",
        "t"
      ],
      [
        "u",
        "t"
      ],
      [
        "Ġw",
        "h"
      ],
      [
        "i",
        "d"
      ],
      [
        "Ġst",
        "an"
      ],
      [
        "u",
        "r"
      ],
      [
        "Ġsit",
        "ting"
      ],
      [
        "o",
        "l"
      ],
      [
        "er",
        "s"
      ],
      [
        "g",
        "e"
      ],
      [
        "Ġa",
        "re"
      ],
      [
        "Ġt",
        "h"
      ],
      [
        "w",
        "o"
      ],
      [
        "i",
        "c"
      ],
      [
        "ar",
        "d"
      ],
      [
        "u",
        "s"
      ],
      [
        "a",
        "b"
      ],
      [
        "it",
        "e"
      ],
      [
        "Ġa",
        "t"
      ],
      [
        "k",
        "ing"
      ],
      [
        "i",
        "g"
      ],
      [
        "he",
        "r"
      ],
      [
        "Ġc",
        "o"
      ],
      [
        "Ġs",
        "k"
      ],
      [
        "Ġb",
        "e"
      ],
      [
        "Ġstan",
        "ding"
      ],
      [
        "y",
        "ing"
      ],
      [
        "Ġ",
        "e"
      ],
      [
        "Ġ",
        "re"
      ],
      [
        "e",
        "op"
      ],
      [
        "eop",
        "le"
      ],
      [
        "e",
        "b"
      ],
      [
        "id",
        "e"
      ],
      [
        "Ġt",
        "ra"
      ],
      [
        "Ġ",
        "ro"
      ],
      [
        "o",
        "ard"
      ],
      [
        "a",
        "d"
      ],
      [
        "x",
        "t"
      ],
      [
        "ab",
        "le"
      ],
      [
        "Ġw",
        "om"
      ],
      [
        "Ġne",
        "xt"
      ],
      [
        "Ġp",
        "eople"
      ],
      [
        "Ġ",
        "k"
      ],
      [
        "Ġ",
        "v"
      ],
      [
        "Ġd",
        "o"
      ],
      [
        "Ġwh",
        "ite"
      ],
      [
        "l",
        "o"
      ],
      [
        "s",
        "s"
      ],
      [
        "i",
        "le"
      ],
      [
        "Ġp",
        "la"
      ],
      [
        "f",
        "f"
      ],
      [
        "Ġp",
        "l"
      ],
      [
        "Ġwom",
        "an"
      ],
      [
        "ĠT",
        "he"
      ],
      [
        "Ġ",
        "it"
      ],
      [
        "Ġh",
        "ol"
      ],
      [
        "Ġt",
        "able"
      ],
      [
        "un",
        "d"
      ],
      [
        "Ġst",
        "re"
      ],
      [
        "om",
        "e"
      ],
      [
        "Ġstre",
        "et"
      ],
      [
        "oo",
        "d"
      ],
      [
        "Ġf",
        "ro"
      ],
      [
        "Ġf",
        "i"
      ],
      [
        "v",
        "e"
      ],
      [
        "ĠT",
        "wo"
      ],
      [
        "v",
        "er"
      ],
      [
        "Ġb",
        "o"
      ],
      [
        "c",
        "e"
      ],
      [
        "Ġ",
        "ri"
      ],
      [
        "Ġhol",
        "ding"
      ],
      [
        "Ġth",
        "at"
      ],
      [
        "Ġp",
        "ar"
      ],
      [
        "Ġl",
        "a"
      ],
      [
        "ow",
        "n"
      ],
      [
        "Ġs",
        "h"
      ],
      [
        "Ġg",
        "ro"
      ],
      [
        "Ġto",
        "p"
      ],
      [
        "at",
        "e"
      ],
      [
        "Ġ",
        "y"
      ],
      [
        "Ġg",
        "ra"
      ],
      [
        "ers",
        "on"
      ],
      [
        "n",
        "t"
      ],
      [
        "Ġb",
        "at"
      ],
      [
        "Ġp",
        "erson"
      ],
      [
        "Ġs",
        "m"
      ],
      [
        "Ġc",
        "h"
      ],
      [
        "ar",
        "ge"
      ],
      [
        "o",
        "un"
      ],
      [
        "an",
        "t"
      ],
      [
        "Ġd",
        "own"
      ],
      [
        "Ġl",
        "arge"
      ],
      [
        "Ġs",
        "ome"
      ],
      [
        "u",
        "m"
      ],
      [
        "Ġw",
        "at"
      ],
      [
        "a",
        "m"
      ],
      [
        "an",
        "d"
      ],
      [
        "Ġc",
        "at"
      ],
      [
        "c",
        "he"
      ],
      [
        "Ġ",
        "up"
      ],
      [
        "Ġf",
        "l"
      ],
      [
        "Ġp",
        "i"
      ],
      [
        "el",
        "d"
      ],
      [
        "Ġs",
        "n"
      ],
      [
        "a",
        "ch"
      ],
      [
        "i",
        "on"
      ],
      [
        "Ġ",
        "S"
      ],
      [
        "Ġc",
        "lo"
      ],
      [
        "Ġfi",
        "eld"
      ],
      [
        "Ġgro",
        "up"
      ],
      [
        "Ġo",
        "ut"
      ],
      [
        "u",
        "l"
      ],
      [
        "k",
        "e"
      ],
      [
        "Ġne",
        "ar"
      ],
      [
        "Ġsn",
        "ow"
      ],
      [
        "Ġc",
        "ar"
      ],
      [
        "Ġdo",
        "g"
      ],
      [
        "s",
        "e"
      ],
      [
        "Ġt",
        "en"
      ],
      [
        "n",
        "is"
      ],
      [
        "Ġt",
        "wo"
      ],
      [
        "Ġw",
        "al"
      ],
      [
        "ig",
        "n"
      ],
      [
        "Ġh",
        "is"
      ],
      [
        "a",
        "ck"
      ],
      [
        "la",
        "ck"
      ],
      [
        "Ġfro",
        "nt"
      ],
      [
        "Ġpar",
        "k"
      ],
      [
        "Ġten",
        "nis"
      ],
      [
        "Ġtra",
        "in"
      ],
      [
        "Ġb",
        "as"
      ],
      [
        "re",
        "e"
      ],
      [
        "Ġsm",
        "all"
      ],
      [
        "Ġb",
        "us"
      ],
      [
        "u",
        "g"
      ],
      [
        "Ġ",
        "ra"
      ],
      [
        "Ġro",
        "om"
      ],
      [
        "h",
        "t"
      ],
      [
        "Ġs",
        "ign"
      ],
      [
        "Ġpl",
        "ate"
      ],
      [
        "ro",
        "om"
      ],
      [
        "a",
        "y"
      ],
      [
        "Ġs",
        "ur"
      ],
      [
        "ro",
        "w"
      ],
      [
        "Ġri",
        "ding"
      ],
      [
        "u",
        "re"
      ],
      [
        "Ġb",
        "lack"
      ],
      [
        "Ġa",
        "ir"
      ],
      [
        "in",
        "d"
      ],
      [
        "el",
        "l"
      ],
      [
        "Ġgra",
        "ss"
      ],
      [
        "oun",
        "g"
      ],
      [
        "Ġk",
        "it"
      ],
      [
        "Ġs",
        "ide"
      ],
      [
        "Ġb",
        "l"
      ],
      [
        "Ġp",
        "h"
      ],
      [
        "Ġb",
        "y"
      ],
      [
        "Ġwat",
        "er"
      ],
      [
        "s",
        "t"
      ],
      [
        "ro",
        "und"
      ],
      [
        "i",
        "m"
      ],
      [
        "u",
        "e"
      ],
      [
        "Ġre",
        "d"
      ],
      [
        "Ġb",
        "u"
      ],
      [
        "v",
        "ing"
      ],
      [
        "on",
        "e"
      ],
      [
        "Ġl",
        "oo"
      ],
      [
        "eb",
        "all"
      ],
      [
        "a",
        "in"
      ],
      [
        "Ġy",
        "oung"
      ],
      [
        "r",
        "u"
      ],
      [
        "p",
        "h"
      ],
      [
        "b",
        "oard"
      ],
      [
        "Ġbas",
        "eball"
      ],
      [
        "Ġsur",
        "f"
      ],
      [
        "s",
        "ide"
      ],
      [
        "as",
        "s"
      ],
      [
        "ff",
        "e"
      ],
      [
        "Ġbat",
        "h"
      ],
      [
        "Ġsk",
        "at"
      ],
      [
        "Ġbu",
        "il"
      ],
      [
        "re",
        "d"
      ],
      [
        "in",
        "k"
      ],
      [
        "Ġb",
        "ed"
      ],
      [
        "ĠA",
        "n"
      ],
      [
        "re",
        "en"
      ],
      [
        "a",
        "ir"
      ],
      [
        "Ġpla",
        "y"
      ],
      [
        "Ġbuil",
        "ding"
      ],
      [
        "Ġh",
        "as"
      ],
      [
        "t",
        "er"
      ],
      [
        "Ġwh",
        "ile"
      ],
      [
        "Ġwal",
        "king"
      ],
      [
        "Ġskat",
        "eb"
      ],
      [
        "Ġpla",
        "ying"
      ],
      [
        "Ġc",
        "om"
      ],
      [
        "p",
        "t"
      ],
      [
        "z",
        "z"
      ],
      [
        "Ġbath",
        "room"
      ],
      [
        "Ġ",
        "j"
      ],
      [
        "ig",
        "ht"
      ],
      [
        "Ġf",
        "ood"
      ],
      [
        "y",
        "c"
      ],
      [
        "d",
        "s"
      ],
      [
        "Ġg",
        "i"
      ],
      [
        "Ġf",
        "or"
      ],
      [
        "Ġ",
        "her"
      ],
      [
        "Ġh",
        "or"
      ],
      [
        "c",
        "t"
      ],
      [
        "Ġbl",
        "ue"
      ],
      [
        "Ġskateb",
        "oard"
      ],
      [
        "ar",
        "ing"
      ],
      [
        "che",
        "n"
      ],
      [
        "Ġo",
        "t"
      ],
      [
        "Ġpi",
        "zz"
      ],
      [
        "Ġp",
        "o"
      ],
      [
        "Ġw",
        "ood"
      ],
      [
        "Ġot",
        "her"
      ],
      [
        "Ġkit",
        "chen"
      ],
      [
        "Ġb",
        "ack"
      ],
      [
        "a",
        "ge"
      ],
      [
        "yc",
        "le"
      ],
      [
        "um",
        "b"
      ],
      [
        "ir",
        "t"
      ],
      [
        "Ġg",
        "reen"
      ],
      [
        "e",
        "p"
      ],
      [
        "Ġm",
        "ot"
      ],
      [
        "Ġe",
        "le"
      ],
      [
        "Ġpark",
        "ed"
      ],
      [
        "Ġl",
        "i"
      ],
      [
        "Ġbo",
        "y"
      ],
      [
        "Ġ",
        "P"
      ],
      [
        "Ġpizz",
        "a"
      ],
      [
        "i",
        "e"
      ],
      [
        "Ġgi",
        "ra"
      ],
      [
        "Ġb",
        "all"
      ],
      [
        "ug",
        "h"
      ],
      [
        "Ġs",
        "e"
      ],
      [
        "Ġsk",
        "i"
      ],
      [
        "an",
        "e"
      ],
      [
        "Ġloo",
        "king"
      ],
      [
        "t",
        "le"
      ],
      [
        "Ġe",
        "at"
      ],
      [
        "Ġ",
        "he"
      ],
      [
        "Ġ",
        "le"
      ],
      [
        "it",
        "y"
      ],
      [
        "t",
        "ure"
      ],
      [
        "g",
        "et"
      ],
      [
        "Ġo",
        "ver"
      ],
      [
        "ir",
        "l"
      ],
      [
        "r",
        "an"
      ],
      [
        "up",
        "le"
      ],
      [
        "Ġbe",
        "ach"
      ],
      [
        "Ġmot",
        "or"
      ],
      [
        "a",
        "ke"
      ],
      [
        "ph",
        "ant"
      ],
      [
        "Ġco",
        "uple"
      ],
      [
        "Ġbe",
        "ar"
      ],
      [
        "Ġw",
        "e"
      ],
      [
        "ile",
        "t"
      ],
      [
        "Ġb",
        "en"
      ],
      [
        "Ġ",
        "z"
      ],
      [
        "Ġto",
        "ilet"
      ],
      [
        "Ġd",
        "es"
      ],
      [
        "am",
        "e"
      ],
      [
        "Ġele",
        "phant"
      ],
      [
        "Ġg",
        "irl"
      ],
      [
        "Ġw",
        "a"
      ],
      [
        "ck",
        "s"
      ],
      [
        "en",
        "t"
      ],
      [
        "re",
        "l"
      ],
      [
        "Ġc",
        "on"
      ],
      [
        "il",
        "d"
      ],
      [
        "Ġro",
        "ad"
      ],
      [
        "Ġp",
        "ic"
      ],
      [
        "Ġcom",
        "p"
      ],
      [
        "ĠT",
        "h"
      ],
      [
        "Ġm",
        "en"
      ],
      [
        "le",
        "d"
      ],
      [
        "Ġfl",
        "ying"
      ],
      [
        "Ġ",
        "B"
      ],
      [
        "Ġd",
        "is"
      ],
      [
        "Ġc",
        "ity"
      ],
      [
        "e",
        "e"
      ],
      [
        "Ġ",
        "umb"
      ],
      [
        "Ġumb",
        "rel"
      ],
      [
        "Ġpic",
        "ture"
      ],
      [
        "l",
        "ass"
      ],
      [
        "d",
        "y"
      ],
      [
        "Ġb",
        "oard"
      ],
      [
        "Ġwe",
        "aring"
      ],
      [
        "Ġs",
        "l"
      ],
      [
        "Ġplay",
        "er"
      ],
      [
        "r",
        "is"
      ],
      [
        "u",
        "b"
      ],
      [
        "Ġclo",
        "ck"
      ],
      [
        "Ġmotor",
        "c"
      ],
      [
        "Ġs",
        "he"
      ],
      [
        "Ġg",
        "ame"
      ],
      [
        "o",
        "us"
      ],
      [
        "pt",
        "op"
      ],
      [
        "Ġa",
        "l"
      ],
      [
        "Ġto",
        "w"
      ],
      [
        "p",
        "p"
      ],
      [
        "Ġw",
        "ind"
      ],
      [
        "Ġla",
        "ptop"
      ],
      [
        "in",
        "e"
      ],
      [
        "Ġ",
        "M"
      ],
      [
        "il",
        "l"
      ],
      [
        "ver",
        "al"
      ],
      [
        "Ġla",
        "ying"
      ],
      [
        "Ġmotorc",
        "ycle"
      ],
      [
        "eb",
        "ra"
      ],
      [
        "Ġfro",
        "m"
      ],
      [
        "on",
        "g"
      ],
      [
        "l",
        "d"
      ],
      [
        "Ġsit",
        "s"
      ],
      [
        "Ġair",
        "p"
      ],
      [
        "t",
        "ain"
      ],
      [
        "Ġcomp",
        "ut"
      ],
      [
        "Ġwood",
        "en"
      ],
      [
        "Ġch",
        "ild"
      ],
      [
        "ro",
        "ugh"
      ],
      [
        "Ġin",
        "t"
      ],
      [
        "Ġs",
        "and"
      ],
      [
        "Ġwind",
        "ow"
      ],
      [
        "Ġs",
        "ink"
      ],
      [
        "row",
        "n"
      ],
      [
        "Ġ",
        "r"
      ],
      [
        "k",
        "s"
      ],
      [
        "Ġz",
        "ebra"
      ],
      [
        "Ġ",
        "W"
      ],
      [
        "Ġth",
        "rough"
      ],
      [
        "Ġthe",
        "ir"
      ],
      [
        "Ġare",
        "a"
      ],
      [
        "Ġa",
        "round"
      ],
      [
        "Ġben",
        "ch"
      ],
      [
        "Ġg",
        "lass"
      ],
      [
        "Ġ",
        "F"
      ],
      [
        "Ġt",
        "ru"
      ],
      [
        "Ġ",
        "C"
      ],
      [
        "p",
        "en"
      ],
      [
        "Ġeat",
        "ing"
      ],
      [
        "Ġa",
        "s"
      ],
      [
        "Ġc",
        "ake"
      ],
      [
        "Ġch",
        "air"
      ],
      [
        "ell",
        "ow"
      ],
      [
        "Ġw",
        "all"
      ],
      [
        "ris",
        "b"
      ],
      [
        "as",
        "e"
      ],
      [
        "ot",
        "o"
      ],
      [
        "Ġbo",
        "at"
      ],
      [
        "Ġhor",
        "se"
      ],
      [
        "ic",
        "e"
      ],
      [
        "ul",
        "l"
      ],
      [
        "Ġb",
        "rown"
      ],
      [
        "Ġd",
        "e"
      ],
      [
        "Ġy",
        "ellow"
      ],
      [
        "w",
        "ay"
      ],
      [
        "Ġph",
        "oto"
      ],
      [
        "Ġph",
        "one"
      ],
      [
        "or",
        "t"
      ],
      [
        "Ġl",
        "ight"
      ],
      [
        "Ġo",
        "ld"
      ],
      [
        "Ġh",
        "and"
      ],
      [
        "Ġs",
        "c"
      ],
      [
        "risb",
        "ee"
      ],
      [
        "Ġcomput",
        "er"
      ],
      [
        "Ġ",
        "und"
      ],
      [
        "Ġdes",
        "k"
      ],
      [
        "a",
        "g"
      ],
      [
        "as",
        "t"
      ],
      [
        "Ġund",
        "er"
      ],
      [
        "Ġst",
        "op"
      ],
      [
        "Ġgira",
        "ffe"
      ],
      [
        "Ġout",
        "side"
      ],
      [
        "b",
        "o"
      ],
      [
        "Ġon",
        "e"
      ],
      [
        "u",
        "it"
      ],
      [
        "Ġo",
        "pen"
      ],
      [
        "Ġl",
        "it"
      ],
      [
        "Ġb",
        "ir"
      ],
      [
        "a",
        "p"
      ],
      [
        "Ġli",
        "ving"
      ],
      [
        "er",
        "y"
      ],
      [
        "Ġs",
        "w"
      ],
      [
        "Ġtru",
        "ck"
      ],
      [
        "Ġt",
        "re"
      ],
      [
        "Ġs",
        "p"
      ],
      [
        "Ġv",
        "e"
      ],
      [
        "Ġfi",
        "re"
      ],
      [
        "ro",
        "ss"
      ],
      [
        "Ġclo",
        "se"
      ],
      [
        "Ġt",
        "e"
      ],
      [
        "Ġb",
        "an"
      ],
      [
        "Ġf",
        "lo"
      ],
      [
        "'",
        "s"
      ],
      [
        "Ġb",
        "ow"
      ],
      [
        "c",
        "c"
      ],
      [
        "ve",
        "red"
      ],
      [
        "Ġm",
        "o"
      ],
      [
        "ĠThe",
        "re"
      ],
      [
        "Ġtre",
        "es"
      ],
      [
        "le",
        "s"
      ],
      [
        "Ġumbrel",
        "la"
      ],
      [
        "g",
        "er"
      ],
      [
        "Ġb",
        "un"
      ],
      [
        "Ġsurf",
        "board"
      ],
      [
        "Ġco",
        "un"
      ],
      [
        "Ġt",
        "ree"
      ],
      [
        "Ġe",
        "ach"
      ],
      [
        "Ġco",
        "vered"
      ],
      [
        "ad",
        "y"
      ],
      [
        "Ġl",
        "ot"
      ],
      [
        "at",
        "ion"
      ],
      [
        "Ġ",
        "en"
      ],
      [
        "Ġco",
        "ur"
      ],
      [
        "Ġc",
        "ell"
      ],
      [
        "Ġd",
        "i"
      ],
      [
        "Ġc",
        "ow"
      ],
      [
        "Ġc",
        "ol"
      ],
      [
        "o",
        "re"
      ],
      [
        "Ġban",
        "an"
      ],
      [
        "ĠTh",
        "ree"
      ],
      [
        "Ġf",
        "il"
      ],
      [
        "Ġbow",
        "l"
      ],
      [
        "h",
        "ind"
      ],
      [
        "Ġbe",
        "hind"
      ],
      [
        "Ġof",
        "f"
      ],
      [
        "q",
        "u"
      ],
      [
        "Ġs",
        "uit"
      ],
      [
        "Ġsk",
        "y"
      ],
      [
        "Ġb",
        "ri"
      ],
      [
        "p",
        "la"
      ],
      [
        "Ġv",
        "ery"
      ],
      [
        "a",
        "k"
      ],
      [
        "s",
        "es"
      ],
      [
        "Ġc",
        "ut"
      ],
      [
        "v",
        "es"
      ],
      [
        "Ġs",
        "o"
      ],
      [
        "Ġfil",
        "led"
      ],
      [
        "g",
        "round"
      ],
      [
        "u",
        "ch"
      ],
      [
        "Ġ",
        "O"
      ],
      [
        "Ġcour",
        "t"
      ],
      [
        "Ġo",
        "ran"
      ],
      [
        "um",
        "p"
      ],
      [
        "i",
        "f"
      ],
      [
        "Ġint",
        "o"
      ],
      [
        "Ġit",
        "s"
      ],
      [
        "Ġairp",
        "l"
      ],
      [
        "et",
        "s"
      ],
      [
        "Ġf",
        "en"
      ],
      [
        "Ġlit",
        "tle"
      ],
      [
        "get",
        "her"
      ],
      [
        "Ġto",
        "gether"
      ],
      [
        "Ġfl",
        "ow"
      ],
      [
        "a",
        "king"
      ],
      [
        "e",
        "at"
      ],
      [
        "Ġk",
        "ite"
      ],
      [
        "Ġsh",
        "ow"
      ],
      [
        "or",
        "s"
      ],
      [
        "Ġr",
        "un"
      ],
      [
        "Ġa",
        "bo"
      ],
      [
        "Ġra",
        "ck"
      ],
      [
        "ct",
        "ion"
      ],
      [
        "i",
        "ch"
      ],
      [
        "ĠS",
        "e"
      ],
      [
        "Ġb",
        "i"
      ],
      [
        "Ġsand",
        "w"
      ],
      [
        "Ġd",
        "ri"
      ],
      [
        "t",
        "s"
      ],
      [
        "ie",
        "w"
      ],
      [
        "us",
        "h"
      ],
      [
        "l",
        "y"
      ],
      [
        "Ġm",
        "oun"
      ],
      [
        "Ġsk",
        "is"
      ],
      [
        "Ġback",
        "ground"
      ],
      [
        "d",
        "le"
      ],
      [
        "al",
        "k"
      ],
      [
        "ĠSe",
        "veral"
      ],
      [
        "Ġin",
        "side"
      ],
      [
        "Ġsh",
        "irt"
      ],
      [
        "Ġstan",
        "ds"
      ],
      [
        "p",
        "ed"
      ],
      [
        "Ġp",
        "re"
      ],
      [
        "Ġdis",
        "pla"
      ],
      [
        "d",
        "r"
      ],
      [
        "Ġairpl",
        "ane"
      ],
      [
        "ir",
        "ro"
      ],
      [
        "Ġm",
        "irro"
      ],
      [
        "Ġco",
        "uch"
      ],
      [
        "Ġg",
        "o"
      ],
      [
        "Ġshe",
        "ep"
      ],
      [
        "Ġf",
        "risbee"
      ],
      [
        "Ġmirro",
        "r"
      ],
      [
        "Ġbun",
        "ch"
      ],
      [
        "Ġsw",
        "ing"
      ],
      [
        "Ġh",
        "y"
      ],
      [
        "ce",
        "an"
      ],
      [
        "Ġ",
[...]
